<unk>	0
<s>	0
</s>	0
って	-0
った	-1
▁@	-2
..	-3
です	-4
ない	-5
から	-6
...	-7
ます	-8
した	-9
して	-10
tt	-11
ちゃ	-12
er	-13
om	-14
!!	-15
wi	-16
com	-17
さん	-18
tter	-19
witter	-20
けど	-21
twitter	-22
なん	-23
かった	-24
ic	-25
▁お	-26
あり	-27
しい	-28
pic	-29
ちゃん	-30
▁今	-31
▁#	-32
たい	-33
とう	-34
います	-35
ました	-36
ありが	-37
そう	-38
an	-39
んな	-40
▁pic	-41
ござ	-42
よう	-43
でも	-44
いい	-45
ありがとう	-46
んだ	-47
とか	-48
れて	-49
▁あ	-50
るの	-51
ございます	-52
かな	-53
にな	-54
れた	-55
▁こ	-56
ですね	-57
さい	-58
んで	-59
//	-60
っと	-61
よね	-62
in	-63
すぎ	-64
htt	-65
http	-66
://	-67
こと	-68
on	-69
いて	-70
▁そ	-71
じゃ	-72
▁ま	-73
いた	-74
▁今日	-75
ta	-76
ww	-77
▁http	-78
しょ	-79
する	-80
しか	-81
なの	-82
まで	-83
10	-84
明日	-85
もう	-86
しく	-87
ってる	-88
れる	-89
だった	-90
っぱ	-91
hi	-92
楽し	-93
▁や	-94
っちゃ	-95
と思	-96
ありがとうございます	-97
くな	-98
12	-99
ma	-100
ーー	-101
ほん	-102
いし	-103
頑張	-104
きた	-105
くて	-106
▁い	-107
くだ	-108
ある	-109
どう	-110
今日	-111
is	-112
好き	-113
ット	-114
のに	-115
▁́	-116
▁...	-117
....	-118
食べ	-119
だけ	-120
ック	-121
▁う	-122
みたい	-123
しょう	-124
ませ	-125
ka	-126
ください	-127
パン	-128
たら	-129
!!!	-130
らい	-131
ですか	-132
しま	-133
えて	-134
なかった	-135
かり	-136
けて	-137
でき	-138
はよう	-139
ot	-140
??	-141
30	-142
ので	-143
、、	-144
ート	-145
▁え	-146
くん	-147
▁https	-148
sta	-149
ったら	-150
ライ	-151
時間	-152
でした	-153
▁なん	-154
mi	-155
めて	-156
yu	-157
ちょ	-158
だから	-159
ar	-160
(^	-161
ap	-162
ほんと	-163
us	-164
スト	-165
20	-166
また	-167
▁私	-168
だよ	-169
本当	-170
ません	-171
仕事	-172
いう	-173
^)	-174
れない	-175
フォ	-176
リー	-177
▁1	-178
▁は	-179
▁そう	-180
ント	-181
ると	-182
可愛	-183
ってた	-184
......	-185
ch	-186
には	-187
これ	-188
疲れ	-189
ki	-190
▁明日	-191
それ	-192
この	-193
なぁ	-194
RT	-195
ります	-196
to	-197
自分	-198
してる	-199
ール	-200
めっちゃ	-201
▁)	-202
11	-203
am	-204
終わ	-205
っぱい	-206
ko	-207
いつ	-208
▁おはよう	-209
に行	-210
よろ	-211
にた	-212
なら	-213
イト	-214
良い	-215
すぎて	-216
します	-217
un	-218
見て	-219
em	-220
お願	-221
ion	-222
!?	-223
まだ	-224
きて	-225
いる	-226
ショ	-227
ろう	-228
〜〜	-229
フォロ	-230
後ろ	-231
すご	-232
en	-233
▁でも	-234
yo	-235
楽しみ	-236
んば	-237
昨日	-238
よろしく	-239
▁わ	-240
ri	-241
www	-242
いっぱい	-243
▁J	-244
みんな	-245
ya	-246
せて	-247
じゃない	-248
丈夫	-249
大丈夫	-250
19	-251
いました	-252
かも	-253
感じ	-254
チャ	-255
▁それ	-256
17	-257
かわ	-258
くり	-259
apan	-260
なくて	-261
なんだ	-262
らない	-263
▁今日は	-264
tus	-265
本当に	-266
イン	-267
▁な	-268
`)	-269
にも	-270
re	-271
status	-272
たし	-273
よー	-274
いします	-275
▁これ	-276
嬉しい	-277
さんの	-278
ise	-279
(*	-280
っち	-281
ions	-282
んだけど	-283
▁Japan	-284
00	-285
▁も	-286
emot	-287
れば	-288
ように	-289
▁emot	-290
▁emotions	-291
▁Japanise	-292
。。	-293
▁もう	-294
sa	-295
▁最	-296
!!!!	-297
キャ	-298
ですよね	-299
ってく	-300
お願いします	-301
やん	-302
える	-303
スタ	-304
ング	-305
*)	-306
とこ	-307
より	-308
ごめ	-309
出来	-310
がら	-311
その	-312
su	-313
早く	-314
__	-315
ファ	-316
んね	-317
▁おはようございます	-318
っくり	-319
めで	-320
ですが	-321
chi	-322
にして	-323
▁(	-324
持ち	-325
el	-326
疲れ様	-327
oo	-328
ちょっと	-329
だし	-330
すぎる	-331
なんて	-332
sh	-333
のお	-334
っても	-335
では	-336
ツイ	-337
くらい	-338
よかった	-339
したら	-340
▁さ	-341
きたい	-342
ーン	-343
ながら	-344
ですよ	-345
可愛い	-346
言わ	-347
カル	-348
▁と	-349
ばい	-350
きます	-351
残念	-352
ける	-353
ro	-354
しました	-355
ku	-356
祭り	-357
絶対	-358
;)	-359
りました	-360
頑張って	-361
もの	-362
コン	-363
しかして	-364
▁カ	-365
良かった	-366
▁た	-367
lo	-368
だけど	-369
▁ア	-370
どうした	-371
・・	-372
いたい	-373
毎日	-374
▁また	-375
▁この	-376
18	-377
やつ	-378
んでしょう	-379
15	-380
▁今夜	-381
無理	-382
▁今日も	-383
けない	-384
メン	-385
jp	-386
ra	-387
だね	-388
ップ	-389
しない	-390
25	-391
フォロー	-392
24	-393
ラン	-394
くない	-395
めでとう	-396
ヤマ	-397
一緒	-398
っか	-399
ちら	-400
もしかして	-401
le	-402
気を	-403
26	-404
ーム	-405
気持ち	-406
のパン	-407
したい	-408
こう	-409
写真	-410
やって	-411
になる	-412
東京	-413
▁おいし	-414
してく	-415
▁̄	-416
ース	-417
ちゃんと	-418
休み	-419
カルテ	-420
やす	-421
▁何	-422
ザキ	-423
カルテット	-424
▁ほんと	-425
食パン	-426
▁大	-427
まり	-428
すごい	-429
かん	-430
▁マ	-431
のか	-432
▁おいしそ	-433
▁ありがとうございます	-434
祭りとか	-435
ヤマザキ	-436
来て	-437
こんな	-438
どうしたんでしょう	-439
春のパン	-440
ヤマザキ春のパン	-441
▁今夜ですね	-442
食パンいっぱい	-443
ヤマザキ春のパン祭りとか	-444
食パンいっぱいどうしたんでしょう	-445
全然	-446
きました	-447
のは	-448
なんか	-449
、、、	-450
出て	-451
になって	-452
そんな	-453
▁昨日	-454
da	-455
▁ありがとう	-456
きゃ	-457
ーーー	-458
がんば	-459
16	-460
ード	-461
っぱり	-462
行く	-463
過ぎ	-464
ぶり	-465
寒い	-466
ありがと	-467
14	-468
しかった	-469
ージ	-470
13	-471
...(	-472
ーい	-473
23	-474
ライブ	-475
らん	-476
もら	-477
りたい	-478
あった	-479
▁ゆ	-480
るので	-481
ve	-482
んど	-483
みて	-484
▁ど	-485
ティ	-486
なのに	-487
欲しい	-488
やれ	-489
めちゃ	-490
ああ	-491
08	-492
▁RT	-493
at	-494
はず	-495
しゃ	-496
きめ	-497
今日は	-498
co	-499
日本	-500
んや	-501
下さい	-502
見た	-503
してた	-504
ター	-505
行って	-506
よろしくお願いします	-507
気が	-508
▁T	-509
えた	-510
なので	-511
っこ	-512
美味	-513
の方	-514
05	-515
れみ	-516
?!	-517
ねー	-518
gr	-519
やる	-520
▁バ	-521
▁やな	-522
ke	-523
やった	-524
ゃね	-525
たげ	-526
言う	-527
ぬま	-528
とは	-529
と思う	-530
にたて	-531
07	-532
こそ	-533
応募	-534
の人	-535
かりたげ	-536
きめれみ	-537
にたやれ	-538
ゃねぬま	-539
▁やなかりたげ	-540
にたてにたやれ	-541
きめれみゃねぬま	-542
▁やなかりたげにたてにたやれ	-543
06	-544
されて	-545
ほんま	-546
04	-547
aa	-548
悪い	-549
少し	-550
shi	-551
▁一	-552
高速	-553
09	-554
LI	-555
al	-556
しまった	-557
28	-558
▁私も	-559
^)/	-560
▁み	-561
えない	-562
よく	-563
かる	-564
・・・	-565
んです	-566
同じ	-567
タイ	-568
すぐ	-569
楽しかった	-570
レン	-571
ねぇ	-572
怖い	-573
元気	-574
後ろの	-575
なく	-576
ing	-577
後ろから	-578
かない	-579
今日も	-580
おめでとう	-581
なくな	-582
いで	-583
▁いつ	-584
とって	-585
だよね	-586
たれた	-587
つけて	-588
学校	-589
me	-590
的な	-591
▁「	-592
03	-593
素敵	-594
st	-595
になった	-596
思い	-597
ang	-598
大好き	-599
stagr	-600
お疲れ様	-601
撃たれた	-602
▁ひ	-603
ちゃう	-604
らしい	-605
超高速	-606
番後ろから	-607
超高速後ろの	-608
番後ろから撃たれた	-609
番後ろから撃たれた超高速後ろの	-610
の中	-611
29	-612
or	-613
～(	-614
ツイート	-615
シャ	-616
やばい	-617
▁C	-618
▁いや	-619
てる	-620
ちゃんの	-621
なんで	-622
スマ	-623
誕生	-624
いや	-625
NE	-626
させて	-627
けた	-628
もん	-629
バー	-630
ないから	-631
▁なんか	-632
に入	-633
なー	-634
曜日	-635
のが	-636
明日も	-637
instagr	-638
とも	-639
くる	-640
ダメ	-641
wwww	-642
って思	-643
大変	-644
うち	-645
なる	-646
ても	-647
ほど	-648
落ち	-649
na	-650
リア	-651
友達	-652
ラー	-653
んに	-654
ne	-655
27	-656
▁;	-657
痛い	-658
という	-659
さんが	-660
誕生日	-661
▁食べ	-662
(;	-663
りあ	-664
ディ	-665
ーん	-666
っき	-667
ほしい	-668
えず	-669
▁ご	-670
▁最近	-671
しよう	-672
ってきた	-673
いつも	-674
かわいい	-675
れてない	-676
ンの	-677
前に	-678
▁2	-679
ジャ	-680
変わ	-681
しぶり	-682
▁いい	-683
幸せ	-684
じゃん	-685
ってない	-686
ましょう	-687
られ	-688
私も	-689
からも	-690
▁て	-691
された	-692
ンス	-693
あげ	-694
んは	-695
んの	-696
ずっと	-697
人が	-698
ってます	-699
だい	-700
ana	-701
おはよう	-702
ちゃった	-703
いない	-704
だと	-705
んだよ	-706
ございました	-707
最高	-708
疲れた	-709
一緒に	-710
あと	-711
mo	-712
応援	-713
とき	-714
かに	-715
久しぶり	-716
▁イ	-717
なきゃ	-718
って言	-719
▁結	-720
be	-721
当た	-722
間に	-723
れてる	-724
ところ	-725
勉強	-726
暑い	-727
リプ	-728
▁残念	-729
▁まじ	-730
ut	-731
っかり	-732
プレ	-733
るのに	-734
▁あー	-735
初めて	-736
▁す	-737
チェ	-738
笑笑	-739
▁そんな	-740
参加	-741
まじ	-742
かい	-743
ュー	-744
びっくり	-745
心配	-746
りあえず	-747
▁まだ	-748
どこ	-749
▁うん	-750
▁ス	-751
▁し	-752
▁3	-753
の子	-754
に会	-755
▁おは	-756
▁なんで	-757
ig	-758
たく	-759
してください	-760
行きたい	-761
▁7	-762
/8	-763
ーーーー	-764
ション	-765
▁みんな	-766
02	-767
いく	-768
楽しい	-769
it	-770
ーの	-771
時に	-772
ha	-773
面白	-774
しかも	-775
ru	-776
▁俺	-777
ou	-778
最近	-779
つか	-780
テスト	-781
上が	-782
xx	-783
名前	-784
笑顔	-785
プリ	-786
なあ	-787
にお	-788
凄い	-789
バイ	-790
できる	-791
チョ	-792
ちは	-793
キャン	-794
▁ふ	-795
48	-796
んですか	-797
大事	-798
wa	-799
挑戦	-800
いろ	-801
▁朝	-802
▁自分	-803
chan	-804
ええ	-805
の日	-806
▁めっちゃ	-807
んですね	-808
一日	-809
▁オ	-810
予定	-811
人の	-812
さま	-813
アイ	-814
ワー	-815
いただ	-816
la	-817
無い	-818
され	-819
̣̥	-820
してます	-821
cchi	-822
37	-823
▁き	-824
からの	-825
違う	-826
ba	-827
ロリー	-828
RE	-829
es	-830
られた	-831
zu	-832
つけ	-833
があ	-834
メイト	-835
栄養	-836
電車	-837
_<	-838
...。	-839
と思います	-840
やすみ	-841
22	-842
。。。	-843
最後	-844
▁か	-845
めた	-846
なさい	-847
ステ	-848
として	-849
angel	-850
▁ハ	-851
>_<	-852
だしね	-853
イベ	-854
やろ	-855
ッチ	-856
ぁぁ	-857
りの	-858
バイト	-859
るから	-860
仲良	-861
がある	-862
でも良い	-863
/7	-864
～～	-865
ねん	-866
と思って	-867
ee	-868
\(^	-869
▁ち	-870
pp	-871
多い	-872
ho	-873
くれ	-874
フェ	-875
あります	-876
好きな	-877
辛い	-878
るのは	-879
そろ	-880
私は	-881
全部	-882
でしょ	-883
))	-884
だな	-885
過ご	-886
いたら	-887
クラ	-888
りに	-889
100	-890
上げ	-891
21	-892
パー	-893
▁カロリー	-894
はずれ	-895
んばんは	-896
合わ	-897
風邪	-898
クリ	-899
でも良いから	-900
▁お疲れ様	-901
だけで	-902
みたいだしね	-903
とってよ	-904
的な物	-905
̣̥̇	-906
～...(	-907
わから	-908
tocchi	-909
▁カロリーメイト	-910
さんに	-911
▁食べれてない	-912
^^	-913
‵‧	-914
栄養とってよ	-915
～...(′	-916
的な物でも良いから	-917
▁食べれてないみたいだしね	-918
ため	-919
たん	-920
one	-921
先生	-922
▁その	-923
de	-924
ありがとうございました	-925
さんと	-926
明日も挑戦	-927
▁こちら	-928
いえ	-929
ンド	-930
カー	-931
普通	-932
▁フォロー	-933
▁今日の	-934
ッキ	-935
ファン	-936
色々	-937
気をつけて	-938
たの	-939
ないと	-940
やっぱり	-941
se	-942
▁そして	-943
39	-944
いてる	-945
かなぁ	-946
ごめんな	-947
方が	-948
ショック	-949
LINE	-950
65	-951
ーズ	-952
さんも	-953
帰って	-954
“@	-955
ないけど	-956
さか	-957
/9	-958
ったけど	-959
しよ	-960
つい	-961
だって	-962
〜!	-963
間違	-964
っちゃう	-965
かしい	-966
体調	-967
▁あと	-968
人で	-969
もっと	-970
▁こんな	-971
へん	-972
っす	-973
人に	-974
instagram	-975
言って	-976
▁って	-977
寝て	-978
しろ	-979
ーす	-980
マン	-981
▁うち	-982
素敵な	-983
あの	-984
まま	-985
シュ	-986
▁本	-987
買い	-988
みたいな	-989
tom	-990
起き	-991
no	-992
おお	-993
rin	-994
嬉しいです	-995
みた	-996
のこと	-997
レー	-998
ce	-999
ai	-1000
マジ	-1001
られる	-1002
ji	-1003
待ち	-1004
すが	-1005
たち	-1006
にか	-1007
▁早く	-1008
だわ	-1009
かなか	-1010
来た	-1011
cre	-1012
▁本当に	-1013
▁サ	-1014
ないの	-1015
ドラ	-1016
くなる	-1017
ほんとに	-1018
すき	-1019
ピー	-1020
▁私は	-1021
意味	-1022
li	-1023
th	-1024
45	-1025
ドキ	-1026
わたし	-1027
まで毎日	-1028
める	-1029
チケ	-1030
はや	-1031
楽しんで	-1032
▁ホ	-1033
しそう	-1034
pe	-1035
▁S	-1036
38	-1037
くなって	-1038
さんは	-1039
聞いて	-1040
>_<)	-1041
▁はい	-1042
会いたい	-1043
ジュ	-1044
▁大丈夫	-1045
go	-1046
だろう	-1047
ごめんなさい	-1048
からね	-1049
以上	-1050
・`)	-1051
ープ	-1052
love	-1053
私の	-1054
食べて	-1055
▁どう	-1056
ぜひ	-1057
教えて	-1058
ごめんね	-1059
しかない	-1060
しても	-1061
考え	-1062
まる	-1063
つく	-1064
フル	-1065
かけ	-1066
▁えっ	-1067
!(	-1068
ht	-1069
なり	-1070
るのか	-1071
TA	-1072
終わった	-1073
いの	-1074
だろ	-1075
▁り	-1076
される	-1077
れてた	-1078
???	-1079
ような	-1080
電話	-1081
▁ほんま	-1082
んですけど	-1083
REA	-1084
もんね	-1085
あん	-1086
してみて	-1087
久々	-1088
テレ	-1089
▁やっぱり	-1090
果は	-1091
▁それは	-1092
いって	-1093
▁゚	-1094
時は	-1095
▁うわ	-1096
ついて	-1097
くれた	-1098
so	-1099
感謝	-1100
なう	-1101
ゆっくり	-1102
ちゃんが	-1103
たくさん	-1104
やら	-1105
けん	-1106
思い出	-1107
まった	-1108
77	-1109
▁コ	-1110
レス	-1111
ーク	-1112
▁てか	-1113
▁次	-1114
いよ	-1115
▁新	-1116
https	-1117
いいね	-1118
ブル	-1119
取り	-1120
▁7/	-1121
(>_<)	-1122
申し	-1123
ってて	-1124
るよ	-1125
▁仕事	-1126
▁いつも	-1127
▁ちょっと	-1128
55	-1129
do	-1130
是非	-1131
っちゃった	-1132
crea	-1133
▁誰	-1134
pi	-1135
しまう	-1136
69	-1137
先輩	-1138
綺麗	-1139
キャンペ	-1140
ックリ	-1141
キャンペーン	-1142
/1	-1143
((	-1144
嫌い	-1145
飲み	-1146
▁CREA	-1147
でお	-1148
po	-1149
▁ありがと	-1150
週間	-1151
すごく	-1152
ご飯	-1153
くちゃ	-1154
モン	-1155
くれて	-1156
きそう	-1157
言葉	-1158
AN	-1159
おはようございます	-1160
チェック	-1161
行った	-1162
しと	-1163
ゆう	-1164
▁ね	-1165
ければ	-1166
ぐらい	-1167
イル	-1168
からは	-1169
!!!!!	-1170
/5	-1171
してみてください	-1172
▁マジ	-1173
に行く	-1174
しくて	-1175
▁そうなん	-1176
かなり	-1177
▁寝	-1178
応募ありがとうございます	-1179
まして	-1180
的に	-1181
せる	-1182
なに	-1183
言われた	-1184
ly	-1185
たま	-1186
を見	-1187
クソ	-1188
行きた	-1189
行け	-1190
ましい	-1191
れん	-1192
できない	-1193
かっこ	-1194
ロー	-1195
みません	-1196
悲しい	-1197
ck	-1198
▁の	-1199
くなった	-1200
がない	-1201
as	-1202
▁わたし	-1203
▁こちらこそ	-1204
かって	-1205
一番	-1206
▁来	-1207
うん	-1208
らず	-1209
イベント	-1210
になります	-1211
引き	-1212
iP	-1213
VE	-1214
`*)	-1215
気づ	-1216
んにちは	-1217
かもし	-1218
ビックリ	-1219
lu	-1220
35	-1221
あれ	-1222
やり	-1223
んじゃ	-1224
確かに	-1225
なって	-1226
お疲れ様でした	-1227
gi	-1228
ごめん	-1229
▁とりあえず	-1230
おも	-1231
っぽ	-1232
oto	-1233
▁A	-1234
つも	-1235
ないで	-1236
MA	-1237
ここ	-1238
っけ	-1239
かし	-1240
手に	-1241
ay	-1242
ひと	-1243
なし	-1244
88	-1245
fu	-1246
前の	-1247
ina	-1248
36	-1249
まって	-1250
大阪	-1251
帰り	-1252
▁く	-1253
おう	-1254
ts	-1255
寂しい	-1256
にい	-1257
...!	-1258
られない	-1259
アー	-1260
▁エ	-1261
ヶ月	-1262
爆笑	-1263
オン	-1264
ブロ	-1265
ワン	-1266
かわい	-1267
仲良く	-1268
情報	-1269
分から	-1270
発売	-1271
られて	-1272
47	-1273
テン	-1274
▁だ	-1275
持って	-1276
ダー	-1277
んだね	-1278
とても	-1279
るのが	-1280
んでる	-1281
動画	-1282
46	-1283
応募でき	-1284
大き	-1285
世界	-1286
今年	-1287
結構	-1288
やば	-1289
楽しみにして	-1290
遊び	-1291
app	-1292
まで毎日応募でき	-1293
▁リ	-1294
はい	-1295
ことが	-1296
と思った	-1297
aru	-1298
ry	-1299
やな	-1300
ないです	-1301
めちゃくちゃ	-1302
▁明日の	-1303
▁あれ	-1304
子供	-1305
なみ	-1306
それは	-1307
高い	-1308
ga	-1309
▁キ	-1310
ベル	-1311
の方が	-1312
そして	-1313
病院	-1314
▁ほ	-1315
▁ガ	-1316
なさ	-1317
ないし	-1318
・_	-1319
▁^	-1320
▁会	-1321
▁4	-1322
宜しく	-1323
ws	-1324
▁残念ながら	-1325
ケー	-1326
日の	-1327
ちゃんも	-1328
でしょう	-1329
の時	-1330
やし	-1331
▁明日は	-1332
bo	-1333
そこ	-1334
になり	-1335
買って	-1336
ii	-1337
終了	-1338
美味しい	-1339
▁つ	-1340
hone	-1341
▁B	-1342
風呂	-1343
早い	-1344
_;)	-1345
▁【	-1346
ky	-1347
人は	-1348
チョコ	-1349
▁こんばんは	-1350
サイ	-1351
いま	-1352
映画	-1353
なんだけど	-1354
くの	-1355
卒業	-1356
プロ	-1357
しさ	-1358
te	-1359
▁Twitter	-1360
▁@_	-1361
87	-1362
ゲーム	-1363
タク	-1364
カラ	-1365
なかなか	-1366
ッコ	-1367
文字	-1368
じゃあ	-1369
_^	-1370
スマス	-1371
いません	-1372
▁パ	-1373
120	-1374
チケット	-1375
ak	-1376
▁_	-1377
おは	-1378
何か	-1379
テレビ	-1380
▁あっ	-1381
っしゃ	-1382
ないよ	-1383
クリスマス	-1384
vi	-1385
部屋	-1386
▁しかも	-1387
かよ	-1388
練習	-1389
▁.	-1390
ニー	-1391
気に	-1392
くんの	-1393
▁結果は	-1394
過ぎて	-1395
考えて	-1396
(^^)	-1397
ダイ	-1398
▁今年	-1399
すぎた	-1400
kyo	-1401
連絡	-1402
無事	-1403
49	-1404
もある	-1405
くださいね	-1406
頑張る	-1407
くれる	-1408
▁見	-1409
▁絶対	-1410
フォロバ	-1411
感動	-1412
▁よ	-1413
▁M	-1414
目の	-1415
bu	-1416
日は	-1417
知ら	-1418
ちゃんは	-1419
tsu	-1420
▁ト	-1421
バス	-1422
推し	-1423
♡♡	-1424
コー	-1425
ジェ	-1426
89	-1427
付け	-1428
▁ウ	-1429
って感じ	-1430
のかな	-1431
26(	-1432
▁せ	-1433
リン	-1434
なのか	-1435
自分の	-1436
▁ご応募ありがとうございます	-1437
高校	-1438
はずれです	-1439
関係	-1440
▁7/26(	-1441
まで毎日応募できるので	-1442
明日も挑戦してみてください	-1443
全く	-1444
天気	-1445
試合	-1446
気分	-1447
優しい	-1448
日に	-1449
ss	-1450
こちら	-1451
Twitter	-1452
してお	-1453
▁5	-1454
01	-1455
中に	-1456
フィ	-1457
(;_;)	-1458
___	-1459
付き	-1460
んでした	-1461
になりました	-1462
ですけど	-1463
bi	-1464
31	-1465
あって	-1466
▁家	-1467
っっ	-1468
▁笑	-1469
乗り	-1470
るい	-1471
不安	-1472
かけて	-1473
〜(	-1474
上手	-1475
周年	-1476
会い	-1477
ってくる	-1478
▁夜	-1479
りん	-1480
キャラ	-1481
▁僕	-1482
he	-1483
学生	-1484
画像	-1485
やっと	-1486
▁D	-1487
おこ	-1488
目が	-1489
mon	-1490
するの	-1491
min	-1492
ad	-1493
お腹	-1494
なった	-1495
沢山	-1496
▁メ	-1497
ゆー	-1498
予約	-1499
やけど	-1500
古屋	-1501
食べた	-1502
おめでとうございます	-1503
ばかり	-1504
良さ	-1505
かぁ	-1506
名古屋	-1507
多分	-1508
頑張ります	-1509
れたら	-1510
▁やばい	-1511
▁ミ	-1512
アル	-1513
66	-1514
ライラ	-1515
▁“@	-1516
/4	-1517
久しぶりに	-1518
▁そー	-1519
レンジ	-1520
サン	-1521
ナー	-1522
繋が	-1523
合い	-1524
twi	-1525
そうです	-1526
今回	-1527
ますね	-1528
場所	-1529
▁で	-1530
レイ	-1531
ああああ	-1532
出る	-1533
ませんでした	-1534
呼び	-1535
アップ	-1536
iPhone	-1537
▁おめでとう	-1538
頑張り	-1539
入れ	-1540
ことは	-1541
だったら	-1542
▁皆	-1543
ff	-1544
してない	-1545
/11	-1546
普通に	-1547
期待	-1548
そー	-1549
申し訳	-1550
セン	-1551
いき	-1552
▁中	-1553
▁おやすみ	-1554
。)	-1555
羨ましい	-1556
̥̥	-1557
なた	-1558
朝から	-1559
▁初	-1560
をチェック	-1561
ことを	-1562
yan	-1563
ウン	-1564
mu	-1565
▁やっと	-1566
▁あの	-1567
▁ほんとに	-1568
ッシュ	-1569
女子	-1570
そうな	-1571
ちゃんに	-1572
っていう	-1573
スク	-1574
しんど	-1575
ずに	-1576
ねえ	-1577
何も	-1578
▁いえ	-1579
アン	-1580
gu	-1581
▁ん	-1582
ジョ	-1583
嬉しかった	-1584
my	-1585
お金	-1586
マイ	-1587
来る	-1588
帰宅	-1589
si	-1590
▁これからも	-1591
▁まぁ	-1592
ブラ	-1593
りが	-1594
互い	-1595
買った	-1596
難しい	-1597
以外	-1598
han	-1599
まい	-1600
んと	-1601
ギリ	-1602
いけない	-1603
終わって	-1604
ge	-1605
/10	-1606
交換	-1607
にゃ	-1608
▁全然	-1609
りで	-1610
わけ	-1611
しましょう	-1612
わい	-1613
今度	-1614
旦那	-1615
▁日	-1616
付けて	-1617
しないで	-1618
▁本当	-1619
チャン	-1620
▁̇	-1621
やから	-1622
ds	-1623
なお	-1624
イス	-1625
グッ	-1626
わかる	-1627
?(	-1628
60	-1629
ti	-1630
りゃ	-1631
と思ってた	-1632
ll	-1633
33	-1634
んだろう	-1635
メンバー	-1636
ラス	-1637
▁タ	-1638
失礼	-1639
・)	-1640
のも	-1641
つかれ	-1642
行けない	-1643
のせ	-1644
ワイ	-1645
しかし	-1646
▁えー	-1647
ara	-1648
んだよね	-1649
ってもら	-1650
こっち	-1651
すみません	-1652
やめて	-1653
▁小	-1654
できた	-1655
ガン	-1656
ist	-1657
これから	-1658
ぁー	-1659
ヤバ	-1660
笑顔で	-1661
大事に	-1662
との	-1663
▁あら	-1664
してね	-1665
▁毎日	-1666
ip	-1667
uu	-1668
息子	-1669
ON	-1670
起きて	-1671
これは	-1672
と思ったら	-1673
(^-	-1674
シー	-1675
させ	-1676
・_・`)	-1677
▁人	-1678
くださ	-1679
できて	-1680
見たい	-1681
やだ	-1682
99	-1683
やめ	-1684
フォロワー	-1685
〜。	-1686
▁前	-1687
がいい	-1688
ペン	-1689
▁-	-1690
スター	-1691
待って	-1692
IN	-1693
に来て	-1694
ぶん	-1695
おい	-1696
質問	-1697
最悪	-1698
≦)	-1699
してくださいね	-1700
終わり	-1701
ったり	-1702
じゃなくて	-1703
グル	-1704
ために	-1705
言い	-1706
44	-1707
よぉ	-1708
らっしゃ	-1709
▁昨日は	-1710
/6	-1711
▁・	-1712
込み	-1713
会社	-1714
ただ	-1715
やで	-1716
しちゃ	-1717
▁名前	-1718
女の子	-1719
問題	-1720
えば	-1721
ょう	-1722
放送	-1723
お疲れ	-1724
つらい	-1725
ママ	-1726
楽しみに	-1727
ことに	-1728
〜〜〜	-1729
しっかり	-1730
出来る	-1731
ッド	-1732
ラスト	-1733
我慢	-1734
に出	-1735
ピン	-1736
めまして	-1737
書いて	-1738
ao	-1739
にご	-1740
わー	-1741
してて	-1742
まく	-1743
xo	-1744
199	-1745
あー	-1746
▁バイト	-1747
迎え	-1748
公演	-1749
に行って	-1750
バン	-1751
忙しい	-1752
これからも	-1753
メール	-1754
とお	-1755
まさか	-1756
sho	-1757
行き	-1758
お願い	-1759
プレゼ	-1760
ほう	-1761
撮影	-1762
shin	-1763
▁H	-1764
▁シ	-1765
受け	-1766
身体	-1767
きっと	-1768
れなかった	-1769
...?	-1770
れました	-1771
kan	-1772
がお	-1773
ッと	-1774
焼き	-1775
買う	-1776
▁なに	-1777
ヤバイ	-1778
▁これは	-1779
実は	-1780
韓国	-1781
くら	-1782
知らない	-1783
75	-1784
▁`	-1785
▁今回	-1786
ichi	-1787
フト	-1788
▁だから	-1789
aki	-1790
40	-1791
信じ	-1792
おやすみ	-1793
di	-1794
バカ	-1795
ふぁ	-1796
やね	-1797
ーツ	-1798
mm	-1799
▁すごい	-1800
選手	-1801
▁ド	-1802
▁いえいえ	-1803
下さいね	-1804
▁最後	-1805
思う	-1806
▁生	-1807
気がする	-1808
aya	-1809
▁ク	-1810
85	-1811
わら	-1812
とりあえず	-1813
▁̆	-1814
▁遅	-1815
での	-1816
ッキー	-1817
ことない	-1818
!」	-1819
bun	-1820
強い	-1821
ニュ	-1822
携帯	-1823
ホント	-1824
わざ	-1825
起きた	-1826
こんなに	-1827
▁朝から	-1828
ver	-1829
ックス	-1830
▁こんにちは	-1831
緊張	-1832
.........	-1833
ken	-1834
▁G	-1835
▁今週	-1836
▁なる	-1837
000	-1838
レベル	-1839
サー	-1840
▁これから	-1841
入って	-1842
ンプ	-1843
完全	-1844
ph	-1845
........	-1846
かー	-1847
死ぬ	-1848
行こう	-1849
まん	-1850
▁が	-1851
112	-1852
近く	-1853
▁やっぱ	-1854
頑張ろう	-1855
さに	-1856
shun	-1857
▁ちょ	-1858
しちゃった	-1859
もち	-1860
▁P	-1861
pple	-1862
ine	-1863
言われて	-1864
▁ええ	-1865
はお	-1866
私が	-1867
うる	-1868
▁自	-1869
みる	-1870
っちゃん	-1871
▁デ	-1872
調子	-1873
もお	-1874
すると	-1875
忘れ	-1876
ja	-1877
覚えて	-1878
▁もー	-1879
立つ	-1880
忘れた	-1881
(*^	-1882
行きたかった	-1883
いな	-1884
準備	-1885
イライラ	-1886
寝る	-1887
RO	-1888
出た	-1889
やねん	-1890
▁む	-1891
事が	-1892
▁おい	-1893
SH	-1894
安心	-1895
▁ここ	-1896
どー	-1897
てた	-1898
cho	-1899
さすが	-1900
▁20	-1901
休んで	-1902
眠い	-1903
よろしくね	-1904
のね	-1905
んねん	-1906
メント	-1907
印象	-1908
など	-1909
会え	-1910
xxx	-1911
途中	-1912
▁頑張って	-1913
～!	-1914
かと	-1915
▁寒い	-1916
やってる	-1917
▁気	-1918
くそ	-1919
イケ	-1920
面白い	-1921
ml	-1922
。」	-1923
んちゃん	-1924
um	-1925
▁がんば	-1926
させていただ	-1927
見る	-1928
▁F	-1929
34	-1930
▁お腹	-1931
▁確かに	-1932
るのかな	-1933
なんですね	-1934
▁可愛い	-1935
▁今から	-1936
)))	-1937
発表	-1938
しまいました	-1939
素晴	-1940
yuu	-1941
あたし	-1942
まぁ	-1943
んでも	-1944
ラーメン	-1945
%8	-1946
オー	-1947
ろん	-1948
いと	-1949
盛り	-1950
68	-1951
してたら	-1952
合う	-1953
ハン	-1954
tokyo	-1955
配信	-1956
ーちゃん	-1957
やっぱ	-1958
んなん	-1959
仕方	-1960
ましょ	-1961
頑張れ	-1962
録画	-1963
110	-1964
▁日本	-1965
秘密	-1966
▁頭	-1967
よな	-1968
変な	-1969
ちん	-1970
(*^^	-1971
だめ	-1972
飲んで	-1973
ks	-1974
まず	-1975
▁よろしくお願いします	-1976
回も	-1977
まじで	-1978
勝手に	-1979
かもしれない	-1980
今日の	-1981
▁今度	-1982
▁私の	-1983
LIVE	-1984
デー	-1985
▁フォローありがとうございます	-1986
生活	-1987
▁地	-1988
▁東京	-1989
やく	-1990
(*^^*)	-1991
まし	-1992
...「	-1993
わか	-1994
だったから	-1995
STA	-1996
VD	-1997
id	-1998
il	-1999
話し	-2000
あまり	-2001
(((	-2002
omo	-2003
アカ	-2004
旅行	-2005
を見て	-2006
いか	-2007
運転	-2008
してきた	-2009
DM	-2010
止ま	-2011
をお	-2012
通り	-2013
どんな	-2014
やが	-2015
のですが	-2016
list	-2017
▁レ	-2018
30-	-2019
に見	-2020
▁まさか	-2021
ミング	-2022
なんですか	-2023
(。	-2024
OK	-2025
切り	-2026
したけど	-2027
かったです	-2028
立ち	-2029
matom	-2030
50	-2031
ワク	-2032
▁さすが	-2033
せない	-2034
月号	-2035
(≧	-2036
79	-2037
さまで	-2038
苦手	-2039
じゅ	-2040
you	-2041
ばっか	-2042
たり	-2043
イレ	-2044
ツアー	-2045
プレゼント	-2046
明日は	-2047
▁あたし	-2048
ありません	-2049
matome	-2050
さら	-2051
上げて	-2052
んだから	-2053
になってる	-2054
aaa	-2055
気持ち悪い	-2056
ネタ	-2057
んですが	-2058
ばっかり	-2059
)(	-2060
▁可愛	-2061
▁お疲れ様でした	-2062
らく	-2063
イク	-2064
キー	-2065
負け	-2066
当選	-2067
気に入	-2068
チャレンジ	-2069
▁先	-2070
使い	-2071
car	-2072
いいな	-2073
わからん	-2074
かね	-2075
fa	-2076
▁雨	-2077
ロン	-2078
去年	-2079
しますので	-2080
▁め	-2081
▁二	-2082
っそ	-2083
わり	-2084
▁N	-2085
福岡	-2086
ムカ	-2087
賞品	-2088
ker	-2089
いち	-2090
▁もっと	-2091
成長	-2092
してもら	-2093
にご参加	-2094
しみ	-2095
そういう	-2096
omi	-2097
今から	-2098
タン	-2099
ari	-2100
てて	-2101
かえ	-2102
落ち着	-2103
グッズ	-2104
▁優	-2105
スメ	-2106
news	-2107
/2	-2108
bunshun	-2109
アプリ	-2110
ドキドキ	-2111
家に	-2112
▁L	-2113
かなー	-2114
なんだよ	-2115
起こ	-2116
▁フ	-2117
km	-2118
している	-2119
▁ポ	-2120
にご参加ありがとうございます	-2121
▁明日の賞品	-2122
また明日も挑戦	-2123
▁明日の賞品をチェック	-2124
また明日も挑戦してくださいね	-2125
▁『	-2126
ケーキ	-2127
しないと	-2128
なみに	-2129
54	-2130
pa	-2131
の事	-2132
ソン	-2133
相手	-2134
続き	-2135
▁久々	-2136
ってくれる	-2137
bot	-2138
違い	-2139
の東京	-2140
ube	-2141
かります	-2142
レンタ	-2143
▁に	-2144
ビュー	-2145
で見	-2146
ギャ	-2147
ドル	-2148
最初	-2149
▁ヒ	-2150
お仕事	-2151
and	-2152
ょん	-2153
恥ず	-2154
スマホ	-2155
!!!!!!!!	-2156
べて	-2157
ボー	-2158
いから	-2159
ニュース	-2160
だったけど	-2161
彼氏	-2162
結果	-2163
KA	-2164
59	-2165
▁よかった	-2166
67	-2167
してくれる	-2168
▁ナ	-2169
▁早	-2170
るん	-2171
部活	-2172
?」	-2173
ni	-2174
ろー	-2175
まだまだ	-2176
ハイ	-2177
▁夏	-2178
確認	-2179
▁出	-2180
かげ	-2181
合わせ	-2182
必要	-2183
▁今の	-2184
▁セ	-2185
スの	-2186
日間	-2187
状態	-2188
にする	-2189
スカ	-2190
▁10	-2191
まーす	-2192
テンション	-2193
twipple	-2194
ってるから	-2195
大切	-2196
▁ホント	-2197
しー	-2198
~~	-2199
▁"	-2200
day	-2201
RA	-2202
うれ	-2203
来週	-2204
▁金	-2205
時の	-2206
▁ラ	-2207
あんな	-2208
気で	-2209
出来ない	-2210
▁全	-2211
▁お疲れ	-2212
ir	-2213
宜しくお願いします	-2214
落と	-2215
彼女	-2216
▁12	-2217
みます	-2218
はり	-2219
▁おはよー	-2220
ったのに	-2221
にしても	-2222
の話	-2223
▁じゃあ	-2224
だー	-2225
やわ	-2226
かっこいい	-2227
/120	-2228
最終	-2229
32	-2230
ッター	-2231
売り	-2232
▁明日からは	-2233
hiro	-2234
迷惑	-2235
れます	-2236
なかったら	-2237
ストレス	-2238
ひど	-2239
ちゅ	-2240
ほんまに	-2241
yuki	-2242
しすぎて	-2243
TO	-2244
えん	-2245
人も	-2246
いです	-2247
イイ	-2248
出して	-2249
▁後	-2250
が見	-2251
毎回	-2252
結婚	-2253
こんばんは	-2254
▁LINE	-2255
▁\	-2256
が好き	-2257
日も	-2258
特に	-2259
by	-2260
▁テスト	-2261
人間	-2262
るし	-2263
▁昨日の	-2264
▁I	-2265
オス	-2266
週末	-2267
START	-2268
▁モ	-2269
ウィ	-2270
appy	-2271
ーに	-2272
しながら	-2273
ライン	-2274
せん	-2275
タイム	-2276
けどね	-2277
▁なんと	-2278
▁さっき	-2279
カード	-2280
▁ただ	-2281
時期	-2282
てか	-2283
だったのに	-2284
ってくれた	-2285
▁なるほど	-2286
のやつ	-2287
食べたい	-2288
いけ	-2289
意外	-2290
そうで	-2291
ネット	-2292
作って	-2293
/7(	-2294
チャンス	-2295
クロ	-2296
の中で	-2297
知り	-2298
菓子	-2299
見たら	-2300
ったの	-2301
さまでした	-2302
????	-2303
ゲロ	-2304
sk	-2305
▁Y	-2306
net	-2307
▁o	-2308
参戦	-2309
▁/	-2310
12/7(	-2311
篇が	-2312
長い	-2313
当たり	-2314
秘密の東京	-2315
しちゃう	-2316
東京篇が	-2317
▁明日からは東京篇が	-2318
大人	-2319
haru	-2320
▁体	-2321
ッセ	-2322
可能	-2323
dan	-2324
▁6	-2325
大会	-2326
▁チ	-2327
.。	-2328
とっても	-2329
マジで	-2330
素晴らしい	-2331
使って	-2332
振り	-2333
▁三	-2334
▁疲れた	-2335
ent	-2336
みたいに	-2337
SA	-2338
すら	-2339
がい	-2340
今は	-2341
楽しく	-2342
でいい	-2343
/3	-2344
希望	-2345
聞いた	-2346
〜〜〜〜	-2347
nd	-2348
れません	-2349
があった	-2350
ってな	-2351
fe	-2352
急に	-2353
(^_	-2354
作り	-2355
yout	-2356
時から	-2357
つき	-2358
ぷん	-2359
反応	-2360
不足	-2361
難う	-2362
新しい	-2363
最後の	-2364
▁▽	-2365
▁けど	-2366
生きて	-2367
さない	-2368
▁電車	-2369
hoo	-2370
しています	-2371
なか	-2372
san	-2373
もない	-2374
野球	-2375
/?	-2376
花粉	-2377
イヤ	-2378
みたら	-2379
はん	-2380
utm	-2381
▁無理	-2382
もし	-2383
pu	-2384
今の	-2385
▁手	-2386
KU	-2387
コラ	-2388
めに	-2389
▁同じ	-2390
出す	-2391
▁:	-2392
使う	-2393
忘れてた	-2394
200	-2395
んやけど	-2396
だぁ	-2397
んじゃない	-2398
エン	-2399
ca	-2400
るな	-2401
▁あり	-2402
打ち	-2403
イメ	-2404
▁*	-2405
man	-2406
いえば	-2407
さっき	-2408
RI	-2409
ぜん	-2410
忘れて	-2411
入り	-2412
そんなに	-2413
ex	-2414
想像	-2415
ッツ	-2416
ウント	-2417
yama	-2418
泣きそう	-2419
カッコ	-2420
ジオ	-2421
TT	-2422
したの	-2423
結局	-2424
誰か	-2425
ino	-2426
▁おはよ	-2427
▁ちゃんと	-2428
、「	-2429
▁W	-2430
わず	-2431
熱中	-2432
ればいい	-2433
cha	-2434
月の	-2435
!?!?	-2436
ダンス	-2437
家族	-2438
おわ	-2439
▁w	-2440
▁学校	-2441
▁フォロバ	-2442
ドラマ	-2443
時間が	-2444
誕生日おめでとう	-2445
るとこ	-2446
事を	-2447
tu	-2448
ゲー	-2449
メラ	-2450
▁まあ	-2451
▁ほんまに	-2452
ったよ	-2453
ったから	-2454
ニング	-2455
wwwwwwww	-2456
っぴ	-2457
peing	-2458
女性	-2459
もー	-2460
連れて	-2461
▁まじで	-2462
行ける	-2463
▁真	-2464
絵文字	-2465
isa	-2466
っかく	-2467
今まで	-2468
あんまり	-2469
ルの	-2470
足り	-2471
かわから	-2472
べき	-2473
るか	-2474
そろそろ	-2475
▁大阪	-2476
更新	-2477
こー	-2478
012	-2479
んか	-2480
ft	-2481
キュ	-2482
ビー	-2483
ってい	-2484
しゅ	-2485
pon	-2486
様に	-2487
html	-2488
みたいです	-2489
トラ	-2490
バタ	-2491
ョン	-2492
んだけ	-2493
taka	-2494
kk	-2495
いろいろ	-2496
nn	-2497
熱中症	-2498
ホン	-2499
してくれた	-2500
ーーーーー	-2501
ld	-2502
他の	-2503
やか	-2504
呼ば	-2505
職場	-2506
スケ	-2507
▁お疲れ様です	-2508
84	-2509
アニ	-2510
機会	-2511
だいすき	-2512
Yu	-2513
出勤	-2514
知らん	-2515
▁暑い	-2516
ight	-2517
なければ	-2518
うど	-2519
▁ゴ	-2520
96	-2521
だか	-2522
タイミング	-2523
くさん	-2524
▁こっち	-2525
お前	-2526
▁風邪	-2527
買い物	-2528
▁楽しみ	-2529
KI	-2530
一人	-2531
▁おお	-2532
降り	-2533
してくれて	-2534
格好	-2535
時代	-2536
▁あん	-2537
▁まぢ	-2538
▁明日も	-2539
出し	-2540
▁土	-2541
▁イン	-2542
っつ	-2543
下が	-2544
凄く	-2545
2019	-2546
?)	-2547
▁いやいや	-2548
入れて	-2549
やったら	-2550
美味しかった	-2551
頑張りましょう	-2552
が出て	-2553
わぁ	-2554
▁帰	-2555
よって	-2556
かったけど	-2557
なんです	-2558
自分が	-2559
切れ	-2560
美味しそう	-2561
ことで	-2562
キング	-2563
ニコ	-2564
▁8	-2565
はじ	-2566
でもいい	-2567
tan	-2568
返事	-2569
オケ	-2570
あい	-2571
かく	-2572
レンタイン	-2573
▁誰か	-2574
っきり	-2575
▁無	-2576
。(	-2577
bit	-2578
死に	-2579
▁ロ	-2580
ってたら	-2581
ってくれて	-2582
圧倒	-2583
リアル	-2584
込んで	-2585
▁外	-2586
▁ああ	-2587
▁そうなの	-2588
バレ	-2589
▁@__	-2590
授業	-2591
UN	-2592
▁ピ	-2593
遠い	-2594
EX	-2595
そうですね	-2596
97	-2597
したり	-2598
でしたね	-2599
はよ	-2600
お疲れ様です	-2601
ッカー	-2602
しまって	-2603
!!!!!!	-2604
030	-2605
▁どこ	-2606
気を付けて	-2607
;`)	-2608
▁写真	-2609
髪の	-2610
良かったです	-2611
やろう	-2612
▁うちも	-2613
余裕	-2614
ディズ	-2615
どっち	-2616
さみ	-2617
ほぼ	-2618
こない	-2619
▁いま	-2620
とる	-2621
ミス	-2622
読んで	-2623
ty	-2624
るのも	-2625
時間に	-2626
絡み	-2627
っぽい	-2628
チラ	-2629
んだろ	-2630
オンの	-2631
びっくりした	-2632
いてた	-2633
\(	-2634
んどん	-2635
▁初めて	-2636
なんとか	-2637
京都	-2638
くんが	-2639
泣き	-2640
ってるよ	-2641
▁実	-2642
しなきゃ	-2643
コンビ	-2644
への	-2645
っご	-2646
are	-2647
返信	-2648
知らなかった	-2649
イメージ	-2650
日目	-2651
番組	-2652
舞台	-2653
だいぶ	-2654
ランド	-2655
仲間	-2656
に会いたい	-2657
注意	-2658
なさん	-2659
懐かしい	-2660
ウト	-2661
^^;	-2662
▁ば	-2663
ブログ	-2664
ではない	-2665
観て	-2666
ial	-2667
料理	-2668
▁美	-2669
んだら	-2670
86	-2671
▁水	-2672
よりも	-2673
リカ	-2674
に乗	-2675
オススメ	-2676
やりたい	-2677
HA	-2678
頑張ってね	-2679
▁素敵な	-2680
キモ	-2681
した人に	-2682
みたいで	-2683
しんどい	-2684
とな	-2685
だったの	-2686
cc	-2687
sp	-2688
GO	-2689
kn	-2690
気をつけ	-2691
しすぎる	-2692
しすぎ	-2693
行きます	-2694
吐き	-2695
セット	-2696
してい	-2697
グラ	-2698
キン	-2699
されてる	-2700
ってたけど	-2701
暑さ	-2702
しの	-2703
まあ	-2704
思った	-2705
ボール	-2706
56	-2707
英語	-2708
休憩	-2709
いただけ	-2710
DA	-2711
はは	-2712
くせ	-2713
ファイ	-2714
イケメン	-2715
▁そうなんだ	-2716
腹立つ	-2717
なくても	-2718
DVD	-2719
OW	-2720
だなぁ	-2721
ipla	-2722
monipla	-2723
あかん	-2724
逆に	-2725
、1	-2726
▁かわいい	-2727
気付	-2728
▁久しぶりに	-2729
余計	-2730
見つ	-2731
▁はぁ	-2732
いたかった	-2733
午後	-2734
遊んで	-2735
GE	-2736
UM	-2737
限定	-2738
になったら	-2739
言われる	-2740
▁良い	-2741
ガチ	-2742
LE	-2743
ぇぇ	-2744
ポン	-2745
▁リプ	-2746
いいですね	-2747
▁ゆっくり	-2748
してました	-2749
のみ	-2750
はない	-2751
ふぁぼ	-2752
受験	-2753
完全に	-2754
キラ	-2755
海道	-2756
ティー	-2757
▁愛	-2758
タル	-2759
に向	-2760
テル	-2761
ってお	-2762
............	-2763
あるの	-2764
致します	-2765
えてる	-2766
瞬間	-2767
つもり	-2768
_-	-2769
くと	-2770
ナイ	-2771
フラ	-2772
弁当	-2773
掃除	-2774
音楽	-2775
▁こう	-2776
あるから	-2777
あったら	-2778
Ma	-2779
▁年	-2780
タメ	-2781
に戻	-2782
▁•	-2783
▁よく	-2784
CD	-2785
;;	-2786
記念	-2787
▁ゆう	-2788
マー	-2789
atsu	-2790
tw	-2791
sy	-2792
作品	-2793
わない	-2794
分かる	-2795
ってくれ	-2796
やー	-2797
事故	-2798
ありました	-2799
今週	-2800
3%8	-2801
▁心	-2802
前で	-2803
vv	-2804
と同じ	-2805
eb	-2806
ぉぉ	-2807
ori	-2808
いちゃん	-2809
中の	-2810
馬鹿	-2811
んですよ	-2812
ばらく	-2813
行かない	-2814
すか	-2815
DE	-2816
変わらず	-2817
IC	-2818
Mi	-2819
あげて	-2820
▁ビ	-2821
▁高	-2822
突然	-2823
よろしくです	-2824
cards	-2825
95	-2826
させて頂	-2827
▁長	-2828
▁来週	-2829
TV	-2830
aka	-2831
ますよ	-2832
家の	-2833
▁イオンの	-2834
cb	-2835
洗濯	-2836
80	-2837
▁ユ	-2838
▁山	-2839
kun	-2840
▁ずっと	-2841
目に	-2842
ナル	-2843
ーパー	-2844
▁やった	-2845
^_^	-2846
▁嬉しい	-2847
出来て	-2848
jun	-2849
有難う	-2850
our	-2851
なくなった	-2852
大量	-2853
〜!!	-2854
生き	-2855
▁しかし	-2856
▁明日から	-2857
リング	-2858
py	-2859
購入	-2860
したよ	-2861
はもう	-2862
ooo	-2863
北海道	-2864
だら	-2865
人と	-2866
むり	-2867
わからない	-2868
ーと	-2869
たから	-2870
挨拶	-2871
来年	-2872
ですかね	-2873
やすい	-2874
かったら	-2875
ぁぁぁ	-2876
してしまった	-2877
かんない	-2878
してくれ	-2879
逃げ	-2880
バッ	-2881
色んな	-2882
～。	-2883
呼んで	-2884
sg	-2885
ホーム	-2886
までに	-2887
たのに	-2888
集中	-2889
だと思う	-2890
関西	-2891
photo	-2892
一回	-2893
▁おやすみなさい	-2894
って言う	-2895
内容	-2896
しております	-2897
でて	-2898
日が	-2899
しまい	-2900
HI	-2901
気になる	-2902
自分で	-2903
しに	-2904
だけでも	-2905
大学	-2906
▁ぜひ	-2907
全て	-2908
なかったから	-2909
当たる	-2910
覚え	-2911
めでと	-2912
▁俺も	-2913
いいけど	-2914
さえ	-2915
KE	-2916
っている	-2917
ぢゃ	-2918
事に	-2919
▁ノ	-2920
コメント	-2921
▁神	-2922
ディズニー	-2923
は何	-2924
ミュ	-2925
会場	-2926
▁ライブ	-2927
明後	-2928
会える	-2929
カン	-2930
普段	-2931
▁テ	-2932
予想	-2933
って言われた	-2934
wwwww	-2935
るわ	-2936
紹介	-2937
まぢ	-2938
300	-2939
デート	-2940
近い	-2941
全員	-2942
▁是非	-2943
いいよ	-2944
▁何か	-2945
改めて	-2946
∇≦)	-2947
今日も一日	-2948
したから	-2949
TS	-2950
57	-2951
だけは	-2952
▁我	-2953
真っ	-2954
maker	-2955
YA	-2956
アリ	-2957
抽選	-2958
jo	-2959
▁だよね	-2960
あっ	-2961
筋肉	-2962
▁わたしも	-2963
mai	-2964
たかった	-2965
あなた	-2966
ヒー	-2967
ども	-2968
が出	-2969
に行きたい	-2970
食べる	-2971
どうしよう	-2972
sb	-2973
だったので	-2974
楽しみにしてます	-2975
うちの	-2976
現場	-2977
書き	-2978
ぽん	-2979
現実	-2980
の写真	-2981
▁ボ	-2982
お話	-2983
カフェ	-2984
皆さん	-2985
したのに	-2986
▁友達	-2987
▁ですよね	-2988
見てる	-2989
けば	-2990
▁ソ	-2991
うう	-2992
goo	-2993
▁マジで	-2994
キャス	-2995
▁あぁ	-2996
こんにちは	-2997
▁@3	-2998
さが	-2999
事は	-3000
記憶	-3001
64	-3002
-_-	-3003
フェス	-3004
お互い	-3005
まえ	-3006
が痛い	-3007
▁i	-3008
握手	-3009
グループ	-3010
決ま	-3011
方は	-3012
▁そろ	-3013
たけど	-3014
もい	-3015
めんど	-3016
▁男	-3017
一生	-3018
ns	-3019
後に	-3020
帰る	-3021
▁おめでとうございます	-3022
こわい	-3023
って思う	-3024
▁おっ	-3025
▁O	-3026
くなってきた	-3027
おじ	-3028
いが	-3029
流石	-3030
HU	-3031
ei	-3032
気温	-3033
好きです	-3034
良く	-3035
投げ	-3036
髪の毛	-3037
ポー	-3038
そも	-3039
▁良かった	-3040
ST	-3041
簡単	-3042
^*)	-3043
▁たま	-3044
もらい	-3045
つら	-3046
ブン	-3047
くなり	-3048
ってきて	-3049
らないと	-3050
通知	-3051
だよー	-3052
▁へ	-3053
▁目	-3054
ランチ	-3055
ふざ	-3056
kana	-3057
ませんか	-3058
ミン	-3059
▁体調	-3060
ッセージ	-3061
ついに	-3062
▁まじか	-3063
ico	-3064
ってました	-3065
▁はじ	-3066
夜は	-3067
▁ちなみに	-3068
ガチャ	-3069
みん	-3070
カップ	-3071
邪魔	-3072
言ってる	-3073
ルー	-3074
世話	-3075
eri	-3076
復活	-3077
にかく	-3078
▁うちの	-3079
SS	-3080
半端	-3081
タイプ	-3082
!!(	-3083
一年	-3084
読み	-3085
ことある	-3086
▁そろそろ	-3087
hu	-3088
痩せ	-3089
まれて	-3090
替え	-3091
とんど	-3092
ッス	-3093
知ってる	-3094
期間	-3095
横浜	-3096
art	-3097
▁9	-3098
、2	-3099
でしょうか	-3100
しね	-3101
ポート	-3102
衣装	-3103
お休み	-3104
ダウン	-3105
プラ	-3106
▁結局	-3107
▁安	-3108
キレ	-3109
なくなる	-3110
ow	-3111
▁もち	-3112
前から	-3113
連続	-3114
まれ	-3115
地震	-3116
かせて	-3117
▁アイ	-3118
おおおお	-3119
▁いろ	-3120
らし	-3121
bb	-3122
意地	-3123
/0	-3124
シャツ	-3125
▁そうそう	-3126
ズレ	-3127
なぜ	-3128
夕方	-3129
終わったら	-3130
ストー	-3131
いつか	-3132
聴いて	-3133
78	-3134
▁面白	-3135
元気に	-3136
がんばって	-3137
▁勉強	-3138
どれ	-3139
いに	-3140
があって	-3141
TL	-3142
散歩	-3143
返し	-3144
rn	-3145
▁そっか	-3146
MI	-3147
評価	-3148
▁上	-3149
追加	-3150
カイ	-3151
引っ	-3152
に行った	-3153
フレ	-3154
飛び	-3155
理解	-3156
▁凄い	-3157
シン	-3158
トリ	-3159
ーマ	-3160
▁相	-3161
終わる	-3162
エット	-3163
チーム	-3164
(^_^)	-3165
▁今日から	-3166
SB	-3167
を感じ	-3168
(^-^)/	-3169
付き合	-3170
▁なんて	-3171
後の	-3172
:*	-3173
圧倒的	-3174
報告	-3175
だいま	-3176
いじ	-3177
対応	-3178
ァァ	-3179
ツイッター	-3180
だぞ	-3181
こちらこそ	-3182
ol	-3183
～～～	-3184
aaaa	-3185
興味	-3186
なんと	-3187
はやく	-3188
一度	-3189
ケン	-3190
くなりました	-3191
▁不	-3192
連休	-3193
若い	-3194
するから	-3195
▁寒	-3196
力で	-3197
分か	-3198
▁やば	-3199
掛け	-3200
までは	-3201
プライ	-3202
まさかの	-3203
▁月	-3204
個人	-3205
▁さん	-3206
▁今朝	-3207
楽しみです	-3208
場合	-3209
吐きそう	-3210
ウル	-3211
さと	-3212
010	-3213
のス	-3214
ウォ	-3215
先に	-3216
キロ	-3217
れそう	-3218
BA	-3219
^)/*	-3220
おつかれ	-3221
クト	-3222
▁少し	-3223
▁ごめん	-3224
必ず	-3225
▁顔	-3226
人生	-3227
社会	-3228
▁わかる	-3229
はまだ	-3230
ダン	-3231
zz	-3232
log	-3233
かなかった	-3234
▁車	-3235
頭痛	-3236
ハマ	-3237
こちゃん	-3238
▁楽しかった	-3239
きに	-3240
明日から	-3241
んですよね	-3242
ガー	-3243
第一	-3244
運動	-3245
▁泣	-3246
▁自分の	-3247
▁昼	-3248
▁ワ	-3249
トイレ	-3250
してるから	-3251
半分	-3252
意識	-3253
:00	-3254
っとる	-3255
73	-3256
俺の	-3257
画面	-3258
▁眠	-3259
▁iPhone	-3260
mp	-3261
▁ベ	-3262
経験	-3263
仕方ない	-3264
ッッ	-3265
伝わ	-3266
来ました	-3267
アイドル	-3268
もらった	-3269
LO	-3270
始め	-3271
行ったら	-3272
83	-3273
まと	-3274
なのかな	-3275
日で	-3276
ジン	-3277
だったよ	-3278
(・	-3279
▁!	-3280
欲しかった	-3281
▁_)	-3282
76	-3283
ong	-3284
失敗	-3285
厳しい	-3286
頑張ろ	-3287
Ox	-3288
の上	-3289
たくない	-3290
しくな	-3291
えます	-3292
待ってる	-3293
ju	-3294
みが	-3295
(_	-3296
▁グ	-3297
うれしい	-3298
ドン	-3299
盛り上が	-3300
回目	-3301
▁頼	-3302
いった	-3303
▁親	-3304
チン	-3305
恐ろ	-3306
移動	-3307
oka	-3308
になると	-3309
ついた	-3310
かしら	-3311
の一	-3312
チュ	-3313
課題	-3314
仲良くしてください	-3315
われた	-3316
▁スタ	-3317
ことも	-3318
明日の	-3319
▁おつかれ	-3320
おば	-3321
昨日は	-3322
下手	-3323
時半	-3324
ヤバい	-3325
あああ	-3326
距離	-3327
もんな	-3328
他にも	-3329
みちゃん	-3330
リーム	-3331
残り	-3332
et	-3333
*\(^	-3334
ct	-3335
時まで	-3336
コンビニ	-3337
ょー	-3338
トレ	-3339
作った	-3340
わん	-3341
めない	-3342
▁はやく	-3343
dai	-3344
カレー	-3345
Lo	-3346
jj	-3347
絡んで	-3348
low	-3349
▁もし	-3350
なかったけど	-3351
au	-3352
質問箱	-3353
おっ	-3354
バム	-3355
TE	-3356
シーン	-3357
To	-3358
ハッ	-3359
▁お前	-3360
広島	-3361
▁最高	-3362
1000	-3363
帰ってきた	-3364
▁どー	-3365
ヨン	-3366
こい	-3367
の良さ	-3368
してほしい	-3369
▁れ	-3370
聞こ	-3371
伸び	-3372
とり	-3373
布団	-3374
ないのに	-3375
asa	-3376
かげで	-3377
▁そこ	-3378
なちゃん	-3379
カメラ	-3380
▁それな	-3381
了解	-3382
kg	-3383
楽しそう	-3384
後悔	-3385
̥̥̥̥	-3386
きの	-3387
明け	-3388
ってこと	-3389
▁久しぶり	-3390
にいる	-3391
なよ	-3392
ichan	-3393
▁元気	-3394
が悪い	-3395
なんですけど	-3396
、、、、	-3397
▁次は	-3398
ってしまった	-3399
こういう	-3400
つぶ	-3401
にあ	-3402
勝ち	-3403
リーズ	-3404
パイ	-3405
くさい	-3406
月は	-3407
▁平	-3408
充電	-3409
▁天	-3410
えー	-3411
置いて	-3412
58	-3413
YO	-3414
おかしい	-3415
したいです	-3416
qs	-3417
遊ぼ	-3418
▁一緒に	-3419
(≧∇≦)	-3420
どんどん	-3421
した人にやる	-3422
サイン	-3423
のライブ	-3424
▁足	-3425
いろんな	-3426
かりました	-3427
にある	-3428
ゆる	-3429
オリ	-3430
▁R	-3431
▁ファ	-3432
恥ずかしい	-3433
悔しい	-3434
▁呼び	-3435
...!!	-3436
拡散	-3437
行動	-3438
コス	-3439
人を	-3440
KO	-3441
飛ば	-3442
ーさん	-3443
らや	-3444
CM	-3445
大好きです	-3446
▁怒	-3447
ゅう	-3448
ナン	-3449
地元	-3450
▁お互い	-3451
活動	-3452
イント	-3453
お店	-3454
エル	-3455
▁怖い	-3456
▁仲	-3457
▁ぼ	-3458
rt	-3459
理由	-3460
変え	-3461
かかる	-3462
投票	-3463
▁一言	-3464
おり	-3465
過ぎる	-3466
ニヤ	-3467
ouT	-3468
▁なかなか	-3469
可哀	-3470
ッフ	-3471
020	-3472
/65	-3473
になりますように	-3474
ちょい	-3475
くわ	-3476
ffic	-3477
過ごしましょう	-3478
▁まだまだ	-3479
雰囲	-3480
年間	-3481
渋谷	-3482
撮り	-3483
過去	-3484
調べ	-3485
kei	-3486
♪(	-3487
ms	-3488
からな	-3489
いいの	-3490
▁暇	-3491
クラス	-3492
いいなぁ	-3493
クル	-3494
CP	-3495
っという	-3496
▁じ	-3497
ええええ	-3498
すいません	-3499
存在	-3500
無事に	-3501
AP	-3502
段階	-3503
気をつけてね	-3504
関東	-3505
ターン	-3506
怪我	-3507
バック	-3508
▁好きな	-3509
止め	-3510
82	-3511
43	-3512
沖縄	-3513
どうか	-3514
tZ	-3515
Ka	-3516
写メ	-3517
いっ	-3518
パパ	-3519
za	-3520
人気	-3521
しくない	-3522
健康	-3523
をして	-3524
ーっ	-3525
▁|	-3526
がんばろ	-3527
ニュー	-3528
▁f	-3529
会う	-3530
めちゃめちゃ	-3531
スキ	-3532
になってた	-3533
なのね	-3534
になりたい	-3535
lin	-3536
昨日の	-3537
ほとんど	-3538
トル	-3539
しますね	-3540
るね	-3541
んやろ	-3542
大好きな	-3543
アレ	-3544
分からない	-3545
▁そうなんですね	-3546
ときは	-3547
dk	-3548
tv	-3549
具合	-3550
こわ	-3551
ren	-3552
ッキリ	-3553
思って	-3554
と言	-3555
口角	-3556
ボロ	-3557
ユニ	-3558
(^^	-3559
ウェ	-3560
日を	-3561
▁今は	-3562
可哀想	-3563
ギリギリ	-3564
No	-3565
にて	-3566
ステージ	-3567
ダル	-3568
▁ブ	-3569
俺は	-3570
用意	-3571
やのに	-3572
デス	-3573
かの	-3574
お風呂	-3575
_3	-3576
tomo	-3577
えっ	-3578
▁ジャ	-3579
ダイエット	-3580
93	-3581
up	-3582
みよう	-3583
これで	-3584
NA	-3585
くせに	-3586
正直	-3587
tk	-3588
無駄	-3589
ソロ	-3590
残業	-3591
92	-3592
dy	-3593
スゴ	-3594
▁ヤ	-3595
スペ	-3596
yuka	-3597
∀`)	-3598
お大事に	-3599
常に	-3600
cm	-3601
小さい	-3602
来ない	-3603
なんや	-3604
少ない	-3605
momo	-3606
▁結構	-3607
間に合わ	-3608
くても	-3609
っぷ	-3610
アニメ	-3611
気に入り	-3612
98	-3613
▁雪	-3614
ジュン	-3615
()	-3616
嫌な	-3617
為に	-3618
大丈夫ですか	-3619
ran	-3620
カラオケ	-3621
おります	-3622
▁多分	-3623
手を	-3624
してるの	-3625
みんなで	-3626
72	-3627
優勝	-3628
漫画	-3629
ぴょん	-3630
94	-3631
wwwwww	-3632
が多い	-3633
ってるけど	-3634
せず	-3635
▁ショック	-3636
shindan	-3637
笑い	-3638
イオン	-3639
yun	-3640
まれた	-3641
カリ	-3642
口角上げて	-3643
してるよ	-3644
年の	-3645
追い	-3646
だが	-3647
ボン	-3648
かったよ	-3649
デビュー	-3650
周り	-3651
気持ち悪	-3652
家で	-3653
捨て	-3654
アカウント	-3655
shindanmaker	-3656
011	-3657
ってください	-3658
qu	-3659
アク	-3660
▁け	-3661
がいる	-3662
74	-3663
▁熱	-3664
やってた	-3665
mn	-3666
さんから	-3667
満足	-3668
んご	-3669
▁かな	-3670
パス	-3671
次は	-3672
ーっと	-3673
mari	-3674
バレンタイン	-3675
luv	-3676
fficial	-3677
FF	-3678
なっ	-3679
すれば	-3680
作業	-3681
(^_^	-3682
ポケ	-3683
お待ち	-3684
アイス	-3685
°)	-3686
▁俺は	-3687
について	-3688
ryo	-3689
らっしゃい	-3690
ej	-3691
遅い	-3692
(^-^)	-3693
度も	-3694
▁応援	-3695
ouTube	-3696
▁同	-3697
ッタ	-3698
HE	-3699
Ri	-3700
始ま	-3701
ys	-3702
頑張ってください	-3703
アメ	-3704
にならない	-3705
mk	-3706
rl	-3707
、3	-3708
季節	-3709
_12	-3710
じゃないですか	-3711
試験	-3712
くんと	-3713
うるさい	-3714
saki	-3715
all	-3716
コンサ	-3717
ところで	-3718
ゆき	-3719
が一番	-3720
われる	-3721
われて	-3722
伝え	-3723
▁娘	-3724
りして	-3725
ぃぃ	-3726
もも	-3727
おやすみなさい	-3728
ずつ	-3729
寝れない	-3730
帰ってきて	-3731
なんだか	-3732
ってるの	-3733
セル	-3734
おはよ	-3735
ドーム	-3736
出てきた	-3737
楽しかったです	-3738
kazu	-3739
見れない	-3740
▁うる	-3741
きますね	-3742
sw	-3743
ayu	-3744
▁色々	-3745
酷い	-3746
バル	-3747
意地悪	-3748
isu	-3749
とかで	-3750
バリ	-3751
▁当	-3752
ールド	-3753
コレ	-3754
さー	-3755
警察	-3756
ってなる	-3757
飲む	-3758
くれない	-3759
こん	-3760
らせて	-3761
ごと	-3762
▁ごめんなさい	-3763
▁《	-3764
ono	-3765
しな	-3766
ライト	-3767
公式	-3768
でに	-3769
▁11	-3770
設定	-3771
のせいで	-3772
喧嘩	-3773
.:*	-3774
くれてありがとう	-3775
させていただきました	-3776
お母	-3777
込む	-3778
ごはん	-3779
the	-3780
▁@10	-3781
言えない	-3782
イラ	-3783
もうすぐ	-3784
とかも	-3785
▁行って	-3786
声が	-3787
しくなる	-3788
しも	-3789
▁赤	-3790
かれ	-3791
札幌	-3792
いー	-3793
歩いて	-3794
ネル	-3795
ハー	-3796
だらけ	-3797
るとは	-3798
ちゃって	-3799
みました	-3800
一言	-3801
さすがに	-3802
というか	-3803
アイコン	-3804
エア	-3805
るけど	-3806
▁時間	-3807
ぇー	-3808
思議	-3809
増えて	-3810
youtu	-3811
次の	-3812
に行こう	-3813
ag	-3814
ぁぁぁぁ	-3815
スタート	-3816
SE	-3817
▁好き	-3818
▁K	-3819
/18	-3820
CA	-3821
▁お仕事	-3822
飛んで	-3823
なんでも	-3824
スポ	-3825
クレ	-3826
泣いて	-3827
mama	-3828
ブロック	-3829
▁海	-3830
ソコン	-3831
してから	-3832
どうぞ	-3833
あそ	-3834
きつい	-3835
んかな	-3836
lion	-3837
ハズレ	-3838
▁名古屋	-3839
ヴァ	-3840
オフ	-3841
ショー	-3842
お願い致します	-3843
▁うんうん	-3844
つの	-3845
▁春	-3846
にした	-3847
ゲット	-3848
わたしも	-3849
▁ぐ	-3850
すの	-3851
遠征	-3852
下さ	-3853
ny	-3854
顔が	-3855
ed	-3856
見たかった	-3857
無し	-3858
えました	-3859
基本	-3860
ひどい	-3861
土曜日	-3862
販売	-3863
転車	-3864
ME	-3865
みの	-3866
かと思った	-3867
LD	-3868
子が	-3869
言ってた	-3870
king	-3871
だからね	-3872
会えて	-3873
泣いた	-3874
▁まさかの	-3875
様の	-3876
精神	-3877
いますね	-3878
70	-3879
泣く	-3880
越し	-3881
una	-3882
やんけ	-3883
人とも	-3884
HK	-3885
約束	-3886
▁。	-3887
はコ	-3888
hr	-3889
っく	-3890
ロシ	-3891
▁ツ	-3892
くんは	-3893
▁せっかく	-3894
てない	-3895
mii	-3896
ピンク	-3897
saku	-3898
れの	-3899
52	-3900
よい	-3901
アナ	-3902
タグ	-3903
▁入	-3904
こさん	-3905
始めて	-3906
ゴミ	-3907
みに	-3908
CE	-3909
ber	-3910
さまです	-3911
OP	-3912
アウト	-3913
がう	-3914
▁おぉ	-3915
までも	-3916
睡眠	-3917
▁ず	-3918
▁暑	-3919
ミー	-3920
ときに	-3921
YU	-3922
ねば	-3923
なんだね	-3924
されました	-3925
企画	-3926
言われ	-3927
始めた	-3928
▁@12	-3929
午前	-3930
▁お大事に	-3931
オル	-3932
-`)	-3933
Ne	-3934
たよ	-3935
のん	-3936
▁これで	-3937
moi	-3938
よねー	-3939
巻き	-3940
▁白	-3941
それで	-3942
▁ぶ	-3943
しょー	-3944
コンサート	-3945
メッセージ	-3946
▁優しさ	-3947
ワクワク	-3948
ムカつく	-3949
性格	-3950
kis	-3951
のために	-3952
バラ	-3953
▁お金	-3954
gl	-3955
営業	-3956
kin	-3957
説明	-3958
お昼	-3959
医者	-3960
▁わー	-3961
と言う	-3962
金曜日	-3963
suke	-3964
ッグ	-3965
ラジオ	-3966
そんなこと	-3967
LA	-3968
恐怖	-3969
にや	-3970
/1111	-3971
まう	-3972
いいですか	-3973
sour	-3974
▁子供	-3975
▁通	-3976
焼け	-3977
の間に	-3978
ea	-3979
すっご	-3980
▁今まで	-3981
hk	-3982
のせい	-3983
63	-3984
定期	-3985
ウス	-3986
写真撮	-3987
MO	-3988
野郎	-3989
▁大変	-3990
▁おー	-3991
・。	-3992
子の	-3993
登録	-3994
うちに	-3995
hy	-3996
ice	-3997
時間を	-3998
かなきゃ	-3999
(`	-4000
サイズ	-4001
がんばる	-4002
なんだろう	-4003
eet	-4004
センター	-4005
げー	-4006
待ってます	-4007
〜、	-4008
<)	-4009
°°	-4010
▁楽しい	-4011
起きたら	-4012
▁数	-4013
検索	-4014
そうだ	-4015
加減	-4016
now	-4017
ナス	-4018
source	-4019
▁まず	-4020
▁゙	-4021
自信	-4022
そのまま	-4023
cvv	-4024
〜?	-4025
あるけど	-4026
していた	-4027
抜け	-4028
オタク	-4029
しばらく	-4030
NS	-4031
地獄	-4032
今日も一日口角上げて	-4033
保存	-4034
dOx	-4035
しかに	-4036
絶対に	-4037
遅刻	-4038
きゅ	-4039
ーション	-4040
dOxvi	-4041
cvvdOxvi	-4042
▁どんな	-4043
可能性	-4044
苦しい	-4045
BO	-4046
幹線	-4047
インスタ	-4048
ほうが	-4049
ラブ	-4050
▁格好	-4051
▁だって	-4052
にく	-4053
▁去年	-4054
happy	-4055
われ	-4056
パワー	-4057
夏休み	-4058
としたら	-4059
▁近	-4060
fo	-4061
sgM	-4062
コール	-4063
でしたか	-4064
アルバム	-4065
田舎	-4066
▁)/	-4067
申し訳ない	-4068
力が	-4069
はる	-4070
的には	-4071
よかったです	-4072
▽;)	-4073
欲しいです	-4074
53	-4075
決め	-4076
流れ	-4077
SO	-4078
映像	-4079
xi	-4080
▁E	-4081
らせ	-4082
おか	-4083
どころ	-4084
身長	-4085
chu	-4086
(>	-4087
相談	-4088
かれた	-4089
/52	-4090
すぐに	-4091
▁ネ	-4092
むか	-4093
喜んで	-4094
ありがたい	-4095
nana	-4096
ね笑	-4097
万円	-4098
コラボ	-4099
着て	-4100
かけた	-4101
りする	-4102
たぶん	-4103
以上に	-4104
サラ	-4105
いても	-4106
/12	-4107
▁私が	-4108
えたら	-4109
▁超	-4110
祝い	-4111
くんも	-4112
▁s	-4113
リラ	-4114
▁最初	-4115
インフル	-4116
yoshi	-4117
ますように	-4118
▁下	-4119
ぐる	-4120
諦め	-4121
(;▽;)	-4122
▁毎	-4123
ギュ	-4124
聞く	-4125
くんに	-4126
気持ちが	-4127
BB	-4128
んばん	-4129
土産	-4130
ひろ	-4131
boo	-4132
くらいの	-4133
大きい	-4134
▁風	-4135
何故	-4136
ってたのに	-4137
クエ	-4138
・°°	-4139
ich	-4140
負けた	-4141
財布	-4142
▁最悪	-4143
WS	-4144
公園	-4145
が多	-4146
失礼します	-4147
ame	-4148
*:	-4149
tm	-4150
動物	-4151
最低	-4152
なこと	-4153
▁そんなに	-4154
かったから	-4155
感が	-4156
出演	-4157
すぎます	-4158
ホントに	-4159
と一緒に	-4160
結果は	-4161
ur	-4162
▁昔	-4163
▁まって	-4164
▁おこ	-4165
mile	-4166
くなります	-4167
そば	-4168
あれば	-4169
頑張った	-4170
▁きっと	-4171
Hi	-4172
飛行	-4173
▁あや	-4174
ってるし	-4175
こも	-4176
今回は	-4177
かか	-4178
▁夢	-4179
公開	-4180
500	-4181
oO	-4182
▁仲の良さ	-4183
mis	-4184
きちゃん	-4185
もちろん	-4186
▁はじめまして	-4187
Ki	-4188
目指	-4189
日曜日	-4190
きれ	-4191
開催	-4192
すと	-4193
ero	-4194
▁'	-4195
nao	-4196
めの	-4197
kai	-4198
▁そういえば	-4199
ピア	-4200
ci	-4201
JK	-4202
安定	-4203
▁久々に	-4204
▁楽しんで	-4205
▁a	-4206
しら	-4207
太郎	-4208
▁意地悪	-4209
いきたい	-4210
▁皆さん	-4211
既に	-4212
事も	-4213
▁あんな	-4214
_10	-4215
のある	-4216
▁来年	-4217
live	-4218
いたけど	-4219
よん	-4220
ザー	-4221
ーーーーーー	-4222
▁ありがとうございました	-4223
つま	-4224
/20	-4225
▁間違	-4226
さらに	-4227
TTtZ	-4228
▁格好良さ	-4229
TTtZHU	-4230
▁話	-4231
月も	-4232
▁はよ	-4233
屋さん	-4234
になりそう	-4235
あや	-4236
もらって	-4237
聞き	-4238
んけど	-4239
(?)	-4240
▁心配	-4241
会話	-4242
年生	-4243
tama	-4244
かちゃん	-4245
▁昨	-4246
お菓子	-4247
ルク	-4248
taro	-4249
▁そういう	-4250
=2019	-4251
中で	-4252
発見	-4253
▁ねぇ	-4254
りは	-4255
段階評価	-4256
決定	-4257
プレイ	-4258
▁めちゃくちゃ	-4259
▁思	-4260
▁なぜ	-4261
かえり	-4262
RU	-4263
share	-4264
りと	-4265
pin	-4266
出した	-4267
KB	-4268
▁ぎ	-4269
つけた	-4270
▁ただいま	-4271
90	-4272
いきなり	-4273
化粧	-4274
▁幸せ	-4275
イチ	-4276
って思った	-4277
えぇ	-4278
らぶ	-4279
はどう	-4280
と思いました	-4281
▁よし	-4282
masa	-4283
文化	-4284
チェキ	-4285
taku	-4286
ギー	-4287
のように	-4288
っちゃって	-4289
(@	-4290
ryu	-4291
作る	-4292
になっちゃう	-4293
▁ニ	-4294
自由	-4295
明後日	-4296
誕生日おめでとうございます	-4297
アホ	-4298
キツ	-4299
ことか	-4300
スコ	-4301
▁じゃ	-4302
ッチャ	-4303
ハード	-4304
分の	-4305
それが	-4306
スイ	-4307
pan	-4308
つける	-4309
のため	-4310
高校生	-4311
助けて	-4312
ぞー	-4313
の人が	-4314
って何	-4315
▁東	-4316
荷物	-4317
kon	-4318
ベン	-4319
▁とか	-4320
久々に	-4321
▁新しい	-4322
買わ	-4323
ーズン	-4324
▁、	-4325
わわ	-4326
ポイント	-4327
/1020	-4328
たまに	-4329
差し	-4330
にゃん	-4331
ゆっくり休んで	-4332
いちゃ	-4333
恐ろしい	-4334
が入	-4335
有り	-4336
でしたが	-4337
ゃー	-4338
▁ある	-4339
さんを	-4340
▁もちろん	-4341
CO	-4342
見え	-4343
借り	-4344
微妙	-4345
mar	-4346
だったね	-4347
感じで	-4348
今年は	-4349
無料	-4350
と思うけど	-4351
きも	-4352
なが	-4353
わかんない	-4354
続けて	-4355
花火	-4356
のよ	-4357
だったんですね	-4358
引退	-4359
じゃなかった	-4360
▁ぴ	-4361
おる	-4362
yahoo	-4363
意外と	-4364
今日から	-4365
▁ごめんね	-4366
程度	-4367
zo	-4368
更に	-4369
状況	-4370
bc	-4371
不思議	-4372
スタッフ	-4373
見てたら	-4374
遅くなって	-4375
▁鼻	-4376
なのは	-4377
▁とても	-4378
遊ぶ	-4379
UMP	-4380
(°	-4381
デル	-4382
んだって	-4383
いこ	-4384
あが	-4385
UP	-4386
られてる	-4387
危険	-4388
ホテル	-4389
▁今週も	-4390
ッション	-4391
したかった	-4392
ってたから	-4393
▁”	-4394
泣ける	-4395
りも	-4396
maa	-4397
るところ	-4398
監督	-4399
ビール	-4400
って言って	-4401
なーい	-4402
仙台	-4403
始まる	-4404
HO	-4405
して下さい	-4406
実に	-4407
いるの	-4408
ぼっち	-4409
アド	-4410
ナナ	-4411
▁そうなんですか	-4412
▁ル	-4413
しよー	-4414
困る	-4415
似てる	-4416
おめでと	-4417
だと思います	-4418
だれ	-4419
~~~	-4420
別に	-4421
ano	-4422
トーク	-4423
かっこよ	-4424
大丈夫です	-4425
嬉しかったです	-4426
42	-4427
驚き	-4428
▁ジ	-4429
line	-4430
リス	-4431
▁全部	-4432
されない	-4433
があります	-4434
めん	-4435
ッパ	-4436
とは思	-4437
もいい	-4438
モノ	-4439
んだな	-4440
ng	-4441
到着	-4442
給料	-4443
過ぎた	-4444
usa	-4445
誰も	-4446
上手く	-4447
影響	-4448
月に	-4449
風邪ひ	-4450
▁ありがとー	-4451
Ta	-4452
合格	-4453
レート	-4454
と思ったけど	-4455
値段	-4456
面倒	-4457
きたかった	-4458
rs	-4459
おはよー	-4460
ありがとー	-4461
送り	-4462
限界	-4463
しょうか	-4464
▁わぁ	-4465
寿司	-4466
fm	-4467
オススメの	-4468
手紙	-4469
かれて	-4470
▁という	-4471
感想	-4472
確定	-4473
▁ねえ	-4474
やはり	-4475
ちょー	-4476
▁ヘ	-4477
maru	-4478
ニア	-4479
デレ	-4480
辞め	-4481
VI	-4482
デザ	-4483
手伝	-4484
りちゃん	-4485
らなきゃ	-4486
▁かわい	-4487
ですから	-4488
今朝	-4489
検査	-4490
▁ほん	-4491
ざんねん	-4492
▁ダ	-4493
体重	-4494
けんな	-4495
わる	-4496
途中で	-4497
▁行きたい	-4498
大丈夫かな	-4499
!!!!!!!	-4500
▁腹	-4501
▁呼び方	-4502
(^_^;)	-4503
ter	-4504
クラブ	-4505
寝てた	-4506
▁アン	-4507
ランス	-4508
飛行機	-4509
▁かっこ	-4510
があれば	-4511
開け	-4512
yuri	-4513
▁許	-4514
アア	-4515
▁了解	-4516
に出て	-4517
バンド	-4518
制限	-4519
筋肉痛	-4520
▁頼れる	-4521
IG	-4522
一瞬	-4523
れど	-4524
▁わーい	-4525
はあ	-4526
いてない	-4527
イド	-4528
んん	-4529
ハラ	-4530
登場	-4531
やすさ	-4532
▁可愛さ	-4533
変更	-4534
har	-4535
んだが	-4536
▽^)	-4537
▁そうですね	-4538
夜勤	-4539
俺も	-4540
Fi	-4541
水分	-4542
課金	-4543
死んで	-4544
JP	-4545
したくない	-4546
一週間	-4547
Re	-4548
ブリ	-4549
。.:*	-4550
なくなって	-4551
成功	-4552
浮上	-4553
▁元	-4554
方がいい	-4555
▁空	-4556
だる	-4557
▁@2	-4558
いける	-4559
かもしれません	-4560
BC	-4561
▁普通に	-4562
はコチラ	-4563
yy	-4564
▁くそ	-4565
花粉症	-4566
US	-4567
何が	-4568
らないで	-4569
かける	-4570
▁黒	-4571
目覚	-4572
▁たくさん	-4573
ピーポー	-4574
ال	-4575
納得	-4576
クリア	-4577
尊敬	-4578
ビビ	-4579
▁かなり	-4580
ティング	-4581
うざ	-4582
ったい	-4583
ジャニ	-4584
Ya	-4585
痛み	-4586
いいた	-4587
うちも	-4588
知らせ	-4589
知った	-4590
開始	-4591
▁今年は	-4592
ゴロ	-4593
ミニ	-4594
完成	-4595
pal	-4596
こんな時間	-4597
当たり前	-4598
しません	-4599
クリーム	-4600
▁to	-4601
▁他	-4602
あら	-4603
事件	-4604
店長	-4605
衝撃	-4606
ok	-4607
▁見て	-4608
当たら	-4609
考える	-4610
アム	-4611
ノリ	-4612
▁お願	-4613
頂き	-4614
押し	-4615
ケース	-4616
会った	-4617
あた	-4618
ers	-4619
反省	-4620
ランク	-4621
かせ	-4622
時間も	-4623
いたので	-4624
CK	-4625
言え	-4626
せいで	-4627
そっち	-4628
▁今の印象	-4629
なぁー	-4630
かた	-4631
▁モン	-4632
きなり	-4633
まっ	-4634
ジャン	-4635
無視	-4636
それを	-4637
ってね	-4638
▁自分も	-4639
41	-4640
せい	-4641
▁いつか	-4642
チャリ	-4643
mayu	-4644
/748	-4645
▁嘘	-4646
の頃	-4647
当て	-4648
しゃべ	-4649
▁いっぱい	-4650
一つ	-4651
野菜	-4652
と思い	-4653
とった	-4654
禁止	-4655
tty	-4656
▁きゃ	-4657
-_-。)	-4658
美容	-4659
るとき	-4660
▁面白さ	-4661
スーパー	-4662
ひとり	-4663
よる	-4664
わせ	-4665
ーが	-4666
レンド	-4667
感覚	-4668
何で	-4669
▁▼	-4670
最後まで	-4671
rr	-4672
つつ	-4673
▁ダメ	-4674
早起き	-4675
pay	-4676
*:.。	-4677
▁俺の	-4678
▁実は	-4679
どの	-4680
ッサ	-4681
カラー	-4682
クー	-4683
パク	-4684
ヴィ	-4685
君の	-4686
ten	-4687
(^▽^)	-4688
///	-4689
▁食	-4690
ome	-4691
出ない	-4692
▁母	-4693
さぁ	-4694
担当	-4695
事務	-4696
ださい	-4697
臭い	-4698
▁すみません	-4699
ぶっ	-4700
立て	-4701
_2	-4702
我が	-4703
環境	-4704
表情	-4705
▁さて	-4706
hana	-4707
ぉー	-4708
なんなの	-4709
なんも	-4710
ヤツ	-4711
後は	-4712
▁会いたい	-4713
って思って	-4714
商品	-4715
皆様	-4716
回復	-4717
▁@7	-4718
ねっ	-4719
体が	-4720
者の	-4721
!?!	-4722
酔い	-4723
してくる	-4724
ならない	-4725
コツ	-4726
して欲しい	-4727
hl	-4728
パラ	-4729
▁そんなこと	-4730
なんなん	-4731
っこう	-4732
言った	-4733
もう少し	-4734
いつでも	-4735
▁あたしも	-4736
▁ママ	-4737
デン	-4738
oma	-4739
▁千	-4740
一杯	-4741
▁すご	-4742
non	-4743
あげる	-4744
だったんだ	-4745
小さ	-4746
カラフル	-4747
mr	-4748
おー	-4749
たべ	-4750
てん	-4751
よ笑	-4752
時も	-4753
かれる	-4754
ますか	-4755
エロ	-4756
友達と	-4757
方の	-4758
=201912	-4759
ze	-4760
リーナ	-4761
▁チョコ	-4762
▁帰宅	-4763
自分も	-4764
▁p	-4765
次回	-4766
楽しみにしてる	-4767
寝てる	-4768
ヨー	-4769
▁歌	-4770
無かった	-4771
わかり	-4772
持ってる	-4773
れも	-4774
▁僕も	-4775
シャル	-4776
子さん	-4777
出来た	-4778
...」	-4779
手が	-4780
歓迎	-4781
▁>	-4782
____	-4783
Li	-4784
SP	-4785
zi	-4786
補給	-4787
です笑	-4788
未来	-4789
tta	-4790
ムリ	-4791
遅れて	-4792
▁息子	-4793
の大	-4794
私に	-4795
管理	-4796
jsb	-4797
タッチ	-4798
.5	-4799
BE	-4800
たび	-4801
予報	-4802
会えない	-4803
のを	-4804
イズ	-4805
事で	-4806
62	-4807
おらん	-4808
焼肉	-4809
でーす	-4810
echo	-4811
さみしい	-4812
わざわざ	-4813
怖かった	-4814
GA	-4815
張り	-4816
パート	-4817
▁プ	-4818
くね	-4819
▁ってか	-4820
疲れて	-4821
の新	-4822
えると	-4823
と思うと	-4824
しん	-4825
届いた	-4826
見ると	-4827
Sa	-4828
話しか	-4829
フリ	-4830
勝利	-4831
店員	-4832
ペース	-4833
23(	-4834
おもしろ	-4835
レット	-4836
ロック	-4837
▁国	-4838
ヲタ	-4839
▁旦那	-4840
どっか	-4841
雰囲気	-4842
▁うそ	-4843
までの	-4844
上がり	-4845
こら	-4846
est	-4847
あたり	-4848
▁すごく	-4849
近づ	-4850
メイク	-4851
▁びっくり	-4852
ーた	-4853
mil	-4854
活躍	-4855
限り	-4856
取って	-4857
0000	-4858
""	-4859
AA	-4860
▁本日	-4861
よろしくお願	-4862
部分	-4863
ようで	-4864
見せ	-4865
official	-4866
♪♪	-4867
原因	-4868
場で	-4869
綺麗な	-4870
key	-4871
協力	-4872
目が覚	-4873
深夜	-4874
苦労	-4875
に行きます	-4876
イライラする	-4877
サイト	-4878
日本語	-4879
帰りたい	-4880
コロ	-4881
ゴン	-4882
責任	-4883
gg	-4884
▁あい	-4885
間違い	-4886
ダム	-4887
やがって	-4888
vo	-4889
体育	-4890
興奮	-4891
万人が	-4892
ishi	-4893
PC	-4894
足りない	-4895
参加してね	-4896
体力	-4897
保育	-4898
最強	-4899
んだけどね	-4900
揚げ	-4901
▁やはり	-4902
どん	-4903
けてる	-4904
/1110	-4905
▁ぽ	-4906
かず	-4907
何回	-4908
がんばれ	-4909
ですねー	-4910
最高の	-4911
ビス	-4912
の時に	-4913
流石に	-4914
Yo	-4915
yk	-4916
有名	-4917
paypal	-4918
マル	-4919
当たった	-4920
いいたします	-4921
本気で	-4922
いいよね	-4923
妄想	-4924
お姉	-4925
よっ	-4926
▁m	-4927
ジョン	-4928
ANA	-4929
きてね	-4930
ですな	-4931
▁今回は	-4932
見えない	-4933
ご応募ありがとうございます	-4934
きたら	-4935
▁7/23(	-4936
̶̷	-4937
んよ	-4938
やります	-4939
ハズレです	-4940
抽選結果は	-4941
完璧	-4942
心が	-4943
▁では	-4944
大量当選	-4945
繋がりたい	-4946
他にもオススメの	-4947
々と	-4948
動き	-4949
▁お母	-4950
▁僕は	-4951
echoes	-4952
万人が当たる	-4953
まで毎日チャンス	-4954
明日も参加してね	-4955
▁今日の抽選結果は	-4956
キャンペーンはコチラ	-4957
万人が当たる大量当選	-4958
他にもオススメのキャンペーン	-4959
Da	-4960
自分に	-4961
▁いいね	-4962
ーター	-4963
▁髪	-4964
弾は	-4965
ニック	-4966
nk	-4967
ませんが	-4968
いわ	-4969
プリン	-4970
だもんね	-4971
に住	-4972
▁《10	-4973
なんだよね	-4974
ニャ	-4975
文句	-4976
▁冷	-4977
可愛かった	-4978
きな	-4979
お会い	-4980
オール	-4981
子ども	-4982
しください	-4983
すす	-4984
かなあ	-4985
YouTube	-4986
特典	-4987
take	-4988
リツイート	-4989
完了	-4990
開幕	-4991
じゃないの	-4992
サッカー	-4993
じゃないか	-4994
ファイト	-4995
ym	-4996
▁あなた	-4997
効果	-4998
▁ご飯	-4999
du	-5000
隣の	-5001
gen	-5002
考えた	-5003
面接	-5004
男子	-5005
まー	-5006
777	-5007
アラ	-5008
ストーリー	-5009
しが	-5010
投稿	-5011
分からん	-5012
シェ	-5013
▁you	-5014
しましょ	-5015
さんで	-5016
月から	-5017
気づいた	-5018
良かったね	-5019
うの	-5020
もらいました	-5021
のとき	-5022
対策	-5023
だに	-5024
▁やる	-5025
cas	-5026
▁現	-5027
▁悲しい	-5028
のツイート	-5029
まない	-5030
ぎり	-5031
面白かった	-5032
かす	-5033
▁カラ	-5034
変態	-5035
▁青	-5036
いね	-5037
温泉	-5038
バイク	-5039
▁それにしても	-5040
ac	-5041
▁CP	-5042
っさ	-5043
りー	-5044
イラスト	-5045
コーヒー	-5046
▁お昼	-5047
▁キャ	-5048
してるけど	-5049
カット	-5050
あちゃん	-5051
寝た	-5052
ってなった	-5053
泊まり	-5054
見ました	-5055
体験	-5056
kou	-5057
のない	-5058
▁はーい	-5059
▁絡	-5060
トン	-5061
種類	-5062
よし	-5063
▽≦)	-5064
キュー	-5065
kawa	-5066
気になって	-5067
に対	-5068
chin	-5069
kuma	-5070
▁こんなに	-5071
blog	-5072
▁今年も	-5073
ログ	-5074
123	-5075
過ごし	-5076
ish	-5077
ってか	-5078
ree	-5079
くまで	-5080
飲み会	-5081
無く	-5082
▁だれ	-5083
オープ	-5084
すけ	-5085
sun	-5086
▁めちゃ	-5087
爆発	-5088
買おう	-5089
送って	-5090
勘弁	-5091
するよ	-5092
dayo	-5093
ございま	-5094
デブ	-5095
yui	-5096
応援してます	-5097
はぁ	-5098
いかない	-5099
yt	-5100
使わ	-5101
努力	-5102
Ko	-5103
初の	-5104
引き続き	-5105
WA	-5106
帰ったら	-5107
みたいですね	-5108
さんのお	-5109
良くない	-5110
だったのか	-5111
ませて	-5112
/8(	-5113
ヨロシ	-5114
一気に	-5115
51	-5116
心の	-5117
年ぶり	-5118
ぃー	-5119
気味	-5120
達が	-5121
iii	-5122
▁うちは	-5123
さき	-5124
ena	-5125
▁えぇ	-5126
ps	-5127
お疲れさまでした	-5128
会って	-5129
の曲	-5130
▁ねー	-5131
笑った	-5132
増えた	-5133
調べて	-5134
シーズン	-5135
整理	-5136
ビン	-5137
終了は	-5138
▁いろいろ	-5139
▁〜	-5140
何を	-5141
知って	-5142
パターン	-5143
間違えて	-5144
止まらない	-5145
▁病院	-5146
▁きょう	-5147
あっという	-5148
▁[	-5149
elo	-5150
yon	-5151
▁"@	-5152
(/	-5153
埼玉	-5154
amu	-5155
するわ	-5156
ショップ	-5157
/9(	-5158
うわ	-5159
んが	-5160
台風	-5161
ye	-5162
あるし	-5163
自転車	-5164
sato	-5165
▁←	-5166
こいつ	-5167
見せて	-5168
FC	-5169
ゼロ	-5170
実際	-5171
放置	-5172
番号	-5173
一日を	-5174
ーーーーーーーー	-5175
かぶ	-5176
▁何で	-5177
▁ぱ	-5178
仕事が	-5179
分かり	-5180
描いて	-5181
チの	-5182
一人で	-5183
抜き	-5184
遅れ	-5185
の人に	-5186
このまま	-5187
詐欺	-5188
▁クソ	-5189
▁携帯	-5190
ないか	-5191
握手会	-5192
来たら	-5193
二人	-5194
ものが	-5195
キツイ	-5196
▁待って	-5197
12/8(	-5198
sn	-5199
続く	-5200
ani	-5201
ちょうど	-5202
情報をチェック	-5203
▁してみてください	-5204
かもね	-5205
▁そりゃ	-5206
でね	-5207
流行	-5208
:30	-5209
寝よう	-5210
▁イオンのクリスマス	-5211
が痛	-5212
ジー	-5213
よーに	-5214
ソフト	-5215
faej	-5216
弾終了は	-5217
12/9(	-5218
イオンチャレンジ	-5219
▁イオンのカラフル	-5220
▁イオンのカラフルクリスマス	-5221
天使	-5222
(。-_-。)	-5223
ジュール	-5224
寄り	-5225
ないので	-5226
▁初めまして	-5227
ですねぇ	-5228
ID	-5229
▁シャ	-5230
tr	-5231
お客	-5232
▁卒業	-5233
だけの	-5234
ケット	-5235
_7	-5236
ばん	-5237
流れて	-5238
▁さすがに	-5239
よかったら	-5240
ぅぅ	-5241
ツン	-5242
シリーズ	-5243
が悪	-5244
大事にして	-5245
信じて	-5246
れなくて	-5247
素直	-5248
yuk	-5249
xoxo	-5250
LL	-5251
モヤ	-5252
̴̶̷	-5253
ロウィ	-5254
会おう	-5255
zuki	-5256
pl	-5257
させる	-5258
するね	-5259
の中に	-5260
スピ	-5261
まくり	-5262
ですわ	-5263
1%	-5264
似合	-5265
別れ	-5266
勘違い	-5267
▁こういう	-5268
▁見た	-5269
見える	-5270
▁どっち	-5271
りますね	-5272
カツ	-5273
▁韓国	-5274
ッスン	-5275
▁眠い	-5276
▁松	-5277
(*^_^	-5278
ふわ	-5279
▁福岡	-5280
)/	-5281
ティブ	-5282
▁ひと	-5283
ヨロシク	-5284
してくださ	-5285
(*^_^*)	-5286
普通の	-5287
してくれたら	-5288
免許	-5289
えるの	-5290
れると	-5291
トロ	-5292
▁お風呂	-5293
girl	-5294
パソコン	-5295
Co	-5296
でた	-5297
保護	-5298
ami	-5299
すいた	-5300
ew	-5301
利用	-5302
▁休み	-5303
MV	-5304
行くの	-5305
いきます	-5306
さんおはようございます	-5307
告白	-5308
▁@1	-5309
可愛くて	-5310
全力で	-5311
二度	-5312
な人	-5313
sei	-5314
なかったので	-5315
するのは	-5316
にこ	-5317
きてる	-5318
Ro	-5319
▁V	-5320
Su	-5321
ノー	-5322
ブス	-5323
充実	-5324
確か	-5325
続け	-5326
▁ファン	-5327
っちゃいました	-5328
いたのに	-5329
りを	-5330
によって	-5331
後輩	-5332
なあかん	-5333
これが	-5334
近所	-5335
めてる	-5336
来店	-5337
深い	-5338
プライズ	-5339
▁@___	-5340
なたの	-5341
危ない	-5342
年齢	-5343
▁ジェ	-5344
いちゃう	-5345
ドリ	-5346
マシ	-5347
繰り	-5348
吐き気	-5349
うま	-5350
実習	-5351
ファボ	-5352
大きな	-5353
ER	-5354
らの	-5355
自然	-5356
だるい	-5357
BR	-5358
ンマ	-5359
目で	-5360
ann	-5361
ングル	-5362
～～～～	-5363
▁すぐ	-5364
幸せな	-5365
って言われて	-5366
頑張ってる	-5367
にの	-5368
▁西	-5369
合わせて	-5370
行ってきた	-5371
キス	-5372
▁もも	-5373
遊びたい	-5374
run	-5375
♡♡♡	-5376
icle	-5377
あき	-5378
かんじ	-5379
適当	-5380
みな	-5381
海外	-5382
じゃないと	-5383
日々	-5384
連勤	-5385
入った	-5386
∀`	-5387
jin	-5388
▁バス	-5389
ばか	-5390
ものを	-5391
だなんて	-5392
▁なんだか	-5393
BS	-5394
ーな	-5395
▁うわぁ	-5396
61	-5397
▽`)	-5398
切って	-5399
今年も	-5400
youtube	-5401
内緒	-5402
日まで	-5403
▁嬉	-5404
注文	-5405
DJ	-5406
▁会社	-5407
あんま	-5408
中国	-5409
以来	-5410
会議	-5411
sm	-5412
にし	-5413
募集	-5414
御座	-5415
▁先生	-5416
リンク	-5417
カナ	-5418
一般	-5419
/16	-5420
甘い	-5421
atu	-5422
相変わらず	-5423
blu	-5424
落ちて	-5425
全国	-5426
何回も	-5427
っ子	-5428
▁@8	-5429
▁in	-5430
多くて	-5431
被害	-5432
tail	-5433
メガ	-5434
▁やべ	-5435
/929	-5436
寝よ	-5437
kr	-5438
様子	-5439
▁ワン	-5440
ブラック	-5441
お世話	-5442
▁ついに	-5443
UR	-5444
そうなの	-5445
男性	-5446
日本の	-5447
だと思って	-5448
ood	-5449
くに	-5450
かが	-5451
メル	-5452
Love	-5453
バタバタ	-5454
▁30	-5455
すんな	-5456
スッキリ	-5457
な感じ	-5458
▁あはは	-5459
前は	-5460
が無い	-5461
そこまで	-5462
KS	-5463
生誕	-5464
〜〜!	-5465
したこと	-5466
▁大丈夫ですか	-5467
きち	-5468
っぺ	-5469
むい	-5470
らか	-5471
代表	-5472
奇跡	-5473
走り	-5474
▁第一	-5475
▁女	-5476
らしく	-5477
チーズ	-5478
▁ム	-5479
とにかく	-5480
神戸	-5481
である	-5482
飲んだ	-5483
▁最後の	-5484
休日	-5485
できん	-5486
の方は	-5487
寝ます	-5488
ろよ	-5489
マネ	-5490
▁電話	-5491
病気	-5492
いこう	-5493
けるな	-5494
まってる	-5495
fi	-5496
するな	-5497
みさん	-5498
))))	-5499
ゆい	-5500
死んだ	-5501
▁誕生日	-5502
スタイル	-5503
-)	-5504
▁いきなり	-5505
ニス	-5506
新聞	-5507
▁もぉ	-5508
/839	-5509
やばかった	-5510
研修	-5511
のリ	-5512
タシ	-5513
感情	-5514
仲良し	-5515
ぷんぷん	-5516
終わりました	-5517
できました	-5518
機嫌	-5519
cat	-5520
いいのに	-5521
おね	-5522
褒め	-5523
lay	-5524
すでに	-5525
なかったの	-5526
またま	-5527
ありがとね	-5528
正解	-5529
方に	-5530
MAX	-5531
▁はる	-5532
出かけ	-5533
田さん	-5534
限って	-5535
ぶち	-5536
▁なんだ	-5537
ell	-5538
早めに	-5539
▁ですね	-5540
▁テレビ	-5541
▁なお	-5542
っしょ	-5543
チャー	-5544
ガイ	-5545
発言	-5546
▁先輩	-5547
▁もうすぐ	-5548
声で	-5549
やる気	-5550
くじ	-5551
wat	-5552
ショット	-5553
あぁ	-5554
せっかく	-5555
方法	-5556
爆睡	-5557
変えて	-5558
EN	-5559
▁太	-5560
せた	-5561
十分	-5562
おおお	-5563
Bo	-5564
Go	-5565
article	-5566
ページ	-5567
年も	-5568
待ってて	-5569
──	-5570
すな	-5571
達の	-5572
今月	-5573
するか	-5574
ようと	-5575
▁喉	-5576
明る	-5577
させていただきます	-5578
突っ	-5579
何とか	-5580
rina	-5581
▁あまり	-5582
並んで	-5583
手の	-5584
バース	-5585
So	-5586
弱い	-5587
あとは	-5588
ハッピー	-5589
▁花	-5590
ちょこ	-5591
とい	-5592
友達が	-5593
にしよう	-5594
▁̊	-5595
後半	-5596
いるから	-5597
エアコン	-5598
▁チケット	-5599
って言ったら	-5600
中です	-5601
仕事で	-5602
変わり	-5603
りますように	-5604
やんな	-5605
どんだけ	-5606
心臓	-5607
ないわ	-5608
に入れて	-5609
_°)	-5610
そうに	-5611
WW	-5612
▁パン	-5613
_8	-5614
お酒	-5615
悩み	-5616
疲れる	-5617
富士	-5618
かで	-5619
九州	-5620
▁帰り	-5621
▁楽し	-5622
晴れ	-5623
kka	-5624
リイベ	-5625
TI	-5626
割と	-5627
行こ	-5628
月曜日	-5629
やぁ	-5630
の時間	-5631
としても	-5632
ゅー	-5633
に行ったら	-5634
ありがとうね	-5635
▁最後に	-5636
られました	-5637
間に合	-5638
頑張って下さい	-5639
ユー	-5640
チュー	-5641
PS	-5642
キュン	-5643
▁る	-5644
バコ	-5645
点で	-5646
になぁ	-5647
ビックリした	-5648
▁●	-5649
▁急	-5650
以降	-5651
宿題	-5652
呼ばれ	-5653
笑って	-5654
に入って	-5655
ゲン	-5656
って言ってた	-5657
ペット	-5658
最高に	-5659
実感	-5660
したので	-5661
AR	-5662
好み	-5663
▁ふぁ	-5664
▁たしかに	-5665
orn	-5666
フリー	-5667
2000	-5668
僕は	-5669
いいい	-5670
ましょうね	-5671
自己	-5672
ust	-5673
メンタル	-5674
笑う	-5675
ane	-5676
見ても	-5677
tn	-5678
みー	-5679
けれど	-5680
たちは	-5681
ティン	-5682
▁c	-5683
号泣	-5684
中は	-5685
miki	-5686
都合	-5687
ロード	-5688
有難うございます	-5689
__)	-5690
られへん	-5691
貴重	-5692
:10	-5693
くらいに	-5694
生で	-5695
お疲れさま	-5696
▁遠	-5697
付いて	-5698
▁たぶん	-5699
」「	-5700
ッテ	-5701
味噌	-5702
夜の	-5703
用の	-5704
かなくて	-5705
ああああああああ	-5706
寝落ち	-5707
してたのに	-5708
制定	-5709
▁ˆ	-5710
ッピ	-5711
▁ヤバイ	-5712
なさそう	-5713
しかしたら	-5714
食い	-5715
決めて	-5716
じゃないよ	-5717
なんだから	-5718
耐え	-5719
趣味	-5720
▁オー	-5721
kuro	-5722
▁ほんとそれ	-5723
im	-5724
〜♪	-5725
twit	-5726
ツー	-5727
物販	-5728
▁@5	-5729
返して	-5730
しまいます	-5731
ですからね	-5732
なんですが	-5733
返す	-5734
ブルー	-5735
してたけど	-5736
▁げ	-5737
負けて	-5738
▁無事	-5739
▁やめて	-5740
▁口	-5741
でもう	-5742
miya	-5743
のと	-5744
ホール	-5745
ロス	-5746
ったー	-5747
むしろ	-5748
が降	-5749
運営	-5750
出てくる	-5751
させてもら	-5752
んですかね	-5753
暖かく	-5754
のレ	-5755
似合う	-5756
回は	-5757
vs	-5758
▁ハイ	-5759
考えたら	-5760
キレイ	-5761
oooo	-5762
(≧▽≦)	-5763
@)	-5764
びり	-5765
▁うれ	-5766
rom	-5767
よいよ	-5768
medi	-5769
(-	-5770
_.	-5771
nu	-5772
rd	-5773
まち	-5774
嫌だ	-5775
買え	-5776
えええ	-5777
ディング	-5778
(*_	-5779
MC	-5780
mas	-5781
れるの	-5782
あんなに	-5783
なんですよ	-5784
ガラ	-5785
気づいて	-5786
空港	-5787
ここまで	-5788
DI	-5789
でる	-5790
ッカ	-5791
詳しく	-5792
物を	-5793
maz	-5794
攻撃	-5795
▁映画	-5796
するし	-5797
の歌	-5798
いただきました	-5799
▁冬	-5800
▁北	-5801
分で	-5802
変わる	-5803
▁よろしく	-5804
detail	-5805
Na	-5806
PP	-5807
げて	-5808
歩き	-5809
社長	-5810
▁サン	-5811
なるほど	-5812
̣̣	-5813
▁部活	-5814
んさん	-5815
共に	-5816
制服	-5817
._.	-5818
▁全く	-5819
もって	-5820
ねんけど	-5821
▁声	-5822
▁横	-5823
方も	-5824
とかは	-5825
のとこ	-5826
落ちた	-5827
)」	-5828
SU	-5829
に着	-5830
目は	-5831
イツ	-5832
▁世界	-5833
と思ってる	-5834
なかったです	-5835
コース	-5836
わかった	-5837
頂きました	-5838
覚悟	-5839
Yak	-5840
新幹線	-5841
気軽	-5842
ピック	-5843
に会える	-5844
Wi	-5845
かは	-5846
▁美味しい	-5847
▁福	-5848
▁イベ	-5849
▁辛い	-5850
maki	-5851
oh	-5852
分け	-5853
//)	-5854
lv	-5855
▁→	-5856
恋愛	-5857
∀`*)	-5858
セク	-5859
子は	-5860
払い	-5861
Sh	-5862
ダラ	-5863
いたの	-5864
いたから	-5865
すみ	-5866
▁高校	-5867
▁あかん	-5868
*:.。.	-5869
▁フォロワー	-5870
お兄	-5871
あげたい	-5872
んばんわ	-5873
うらや	-5874
お迎え	-5875
暖かい	-5876
わかります	-5877
DO	-5878
81	-5879
まゆ	-5880
ガキ	-5881
▁直	-5882
リスト	-5883
言ったら	-5884
2_	-5885
まつ	-5886
ロール	-5887
▁そうだね	-5888
▁気をつけて	-5889
たのしみ	-5890
スパ	-5891
per	-5892
▁家族	-5893
何より	-5894
かないように	-5895
ハハ	-5896
目標	-5897
探して	-5898
ガタ	-5899
反対	-5900
ずるい	-5901
されたら	-5902
に居	-5903
いただき	-5904
cy	-5905
髪型	-5906
言いたい	-5907
じゃないから	-5908
▁ケ	-5909
ステキ	-5910
Yakyu	-5911
ズム	-5912
感謝です	-5913
教室	-5914
涙が	-5915
目を	-5916
だいじ	-5917
国民	-5918
始まった	-5919
おめ	-5920
マス	-5921
saya	-5922
モチ	-5923
▁じゅ	-5924
(__)	-5925
)♡	-5926
xq	-5927
俺が	-5928
寝坊	-5929
世の中	-5930
natsu	-5931
dd	-5932
ゾン	-5933
異常	-5934
▁ゆー	-5935
っかい	-5936
観たい	-5937
shid	-5938
▁うわー	-5939
そうだね	-5940
スケジュール	-5941
悩む	-5942
ようです	-5943
ナイト	-5944
かないと	-5945
死にそう	-5946
きたいです	-5947
オレ	-5948
平日	-5949
そりゃ	-5950
置き	-5951
▁やだ	-5952
シフト	-5953
せー	-5954
だけに	-5955
るのを	-5956
▁アル	-5957
たすら	-5958
も好き	-5959
ちなみに	-5960
NG	-5961
センス	-5962
▁今回の	-5963
聞いたら	-5964
放題	-5965
永遠	-5966
売り切れ	-5967
(^^;;	-5968
代わ	-5969
ものは	-5970
ey	-5971
死ね	-5972
入れる	-5973
▁羨ましい	-5974
してしまう	-5975
マラ	-5976
早う	-5977
音が	-5978
気がします	-5979
下の	-5980
駐車	-5981
▁君	-5982
▁秋	-5983
ずれ	-5984
度に	-5985
静岡	-5986
しとる	-5987
時間は	-5988
食べてる	-5989
変わった	-5990
Ch	-5991
なくちゃ	-5992
らなくて	-5993
igshid	-5994
がち	-5995
▁なら	-5996
じゃないけど	-5997
参考	-5998
表示	-5999
読む	-6000
たつ	-6001
魅力	-6002
▁本日も	-6003
考えると	-6004
しないでね	-6005
めんどくさい	-6006
風が	-6007
▁それが	-6008
らに	-6009
ただの	-6010
クター	-6011
ゴメン	-6012
▁行	-6013
りな	-6014
ポーズ	-6015
今度は	-6016
ドア	-6017
拝見	-6018
見つけ	-6019
▁あした	-6020
圧倒的成長	-6021
:3	-6022
Chi	-6023
mus	-6024
▁とにかく	-6025
bs	-6026
ev	-6027
駄目	-6028
▁U	-6029
uuu	-6030
行ってきます	-6031
gogo	-6032
.....	-6033
内で	-6034
フライ	-6035
▁お迎え	-6036
▁気持ち	-6037
gd	-6038
もや	-6039
嫉妬	-6040
rei	-6041
この前	-6042
ファミ	-6043
あるのに	-6044
Lu	-6045
展開	-6046
に行け	-6047
頑張ろうね	-6048
ようになった	-6049
の前	-6050
機能	-6051
事務所	-6052
miku	-6053
物が	-6054
_09	-6055
▁違う	-6056
shop	-6057
遭遇	-6058
▁.。.:*	-6059
美人	-6060
歯医者	-6061
自分は	-6062
2525	-6063
ようやく	-6064
ったいない	-6065
▁よかったら	-6066
真面	-6067
くって	-6068
いつもの	-6069
に関	-6070
間の	-6071
▁ステ	-6072
向か	-6073
fc	-6074
ban	-6075
yoko	-6076
:8	-6077
フワ	-6078
歌う	-6079
相当	-6080
選挙	-6081
▁フォロバありがとうございます	-6082
不明	-6083
▁ゆき	-6084
一応	-6085
物の	-6086
からお	-6087
言えば	-6088
上に	-6089
軽く	-6090
head	-6091
同士	-6092
消えて	-6093
yasu	-6094
▁悪	-6095
まわ	-6096
土日	-6097
後で	-6098
▁わざ	-6099
▁激	-6100
リュ	-6101
モード	-6102
▁第一印象	-6103
ハム	-6104
診断	-6105
見てて	-6106
新宿	-6107
755	-6108
マスク	-6109
メイン	-6110
▁ら	-6111
年に	-6112
暖か	-6113
やっ	-6114
いくら	-6115
むかつく	-6116
部の	-6117
mika	-6118
っぱなし	-6119
BG	-6120
んのか	-6121
モデル	-6122
▁自分は	-6123
ですもんね	-6124
になっちゃった	-6125
▁有	-6126
▁@4	-6127
いてます	-6128
')	-6129
カス	-6130
入院	-6131
空気	-6132
しなくて	-6133
ふぁぼした人にやる	-6134
店舗	-6135
roid	-6136
安全	-6137
▁まゆ	-6138
どちら	-6139
▁n	-6140
見れる	-6141
miyu	-6142
かっ	-6143
フロ	-6144
答え	-6145
▁いよいよ	-6146
愚痴	-6147
▁次の	-6148
たちの	-6149
ジャー	-6150
▁ガーン	-6151
ではなく	-6152
ズル	-6153
夕飯	-6154
rk	-6155
るのね	-6156
▁100	-6157
▁これが	-6158
つぶや	-6159
遊ぼう	-6160
zy	-6161
日から	-6162
▁♡	-6163
達成	-6164
珍しい	-6165
CH	-6166
ep	-6167
Mo	-6168
NO	-6169
gon	-6170
▁@6	-6171
_9	-6172
ica	-6173
やかな	-6174
驚いた	-6175
smile	-6176
DS	-6177
メモ	-6178
ace	-6179
褒めて	-6180
それでも	-6181
クション	-6182
シア	-6183
っっっ	-6184
...)	-6185
やべ	-6186
310	-6187
時には	-6188
遊べ	-6189
させて頂きました	-6190
In	-6191
┓┓	-6192
偶然	-6193
加工	-6194
集合	-6195
//∇	-6196
▁まー	-6197
を見た	-6198
片付け	-6199
許さん	-6200
があるから	-6201
よろしくお願いいたします	-6202
来ます	-6203
▁怖	-6204
▁木	-6205
ー笑	-6206
実家	-6207
おもろ	-6208
▁この前	-6209
▁土曜日	-6210
思ってる	-6211
やと	-6212
ルト	-6213
▁うーん	-6214
▁ホントに	-6215
ブレ	-6216
してたから	-6217
▁ひど	-6218
ワイト	-6219
▁今年の	-6220
まったく	-6221
_5	-6222
○○	-6223
▁みなさん	-6224
がな	-6225
テロ	-6226
ましたね	-6227
会の	-6228
～、	-6229
なんだって	-6230
//∇//)	-6231
になってしまった	-6232
BH	-6233
▁うっ	-6234
それも	-6235
ましたよ	-6236
▁ギ	-6237
_07	-6238
ちゃいました	-6239
の顔	-6240
毎年	-6241
データ	-6242
mina	-6243
ショート	-6244
くさ	-6245
優先	-6246
そんなの	-6247
怒り	-6248
文化祭	-6249
hina	-6250
オープン	-6251
sj	-6252
don	-6253
いは	-6254
びび	-6255
特別	-6256
▁たの	-6257
会いた	-6258
できなかった	-6259
フォローありがとうございます	-6260
cam	-6261
orin	-6262
mt	-6263
冷え	-6264
タオル	-6265
わたしは	-6266
間に合う	-6267
pr	-6268
ミナ	-6269
モー	-6270
～?	-6271
▁あげ	-6272
▁いやー	-6273
ないよね	-6274
▁15	-6275
▁プロ	-6276
Fu	-6277
見逃	-6278
wor	-6279
▁ツイート	-6280
LU	-6281
次第	-6282
内に	-6283
▁おば	-6284
変わって	-6285
浮気	-6286
～!!	-6287
mg	-6288
貰った	-6289
クエスト	-6290
忘れない	-6291
の先生	-6292
確実に	-6293
わけない	-6294
変わらない	-6295
電気	-6296
うまい	-6297
何でも	-6298
が無	-6299
んす	-6300
セラ	-6301
不良	-6302
組み	-6303
何度も	-6304
▁とっても	-6305
両方	-6306
帰りに	-6307
((((;	-6308
んち	-6309
入る	-6310
優しさ	-6311
時間の	-6312
されてた	-6313
ルフ	-6314
japan	-6315
twitpic	-6316
1/	-6317
DD	-6318
(・_	-6319
▁あとは	-6320
▁大好き	-6321
▁イライラ	-6322
らなかった	-6323
譲り	-6324
のような	-6325
ましたが	-6326
プラス	-6327
計画	-6328
▁たく	-6329
迷う	-6330
ess	-6331
moto	-6332
おじさん	-6333
ってくれない	-6334
kt	-6335
Be	-6336
Ru	-6337
トー	-6338
意見	-6339
SHI	-6340
乗って	-6341
coco	-6342
▁頑張れ	-6343
を思い出	-6344
op	-6345
かあ	-6346
半年	-6347
んのに	-6348
切った	-6349
年末	-6350
▁勝	-6351
ネス	-6352
入れた	-6353
頑張れる	-6354
上手い	-6355
表現	-6356
観た	-6357
雨降	-6358
Ha	-6359
wn	-6360
ボケ	-6361
だぜ	-6362
上がる	-6363
OM	-6364
減った	-6365
どういう	-6366
御座います	-6367
fb	-6368
熱い	-6369
重い	-6370
_08	-6371
たちが	-6372
コード	-6373
サービス	-6374
▁↓	-6375
ayaka	-6376
兄弟	-6377
▁部屋	-6378
過ごしください	-6379
Pe	-6380
もた	-6381
▁何も	-6382
▁行く	-6383
▁ゲ	-6384
ほー	-6385
ヤー	-6386
予感	-6387
達は	-6388
の時は	-6389
まれる	-6390
▁@08	-6391
の誕生日	-6392
中々	-6393
似て	-6394
▁18	-6395
お言葉	-6396
AM	-6397
!!?	-6398
▁とも	-6399
やめろ	-6400
出てる	-6401
lines	-6402
んですけどね	-6403
▁@0	-6404
▁だめ	-6405
っすね	-6406
os	-6407
レア	-6408
痛いし	-6409
▁わたしは	-6410
▁左	-6411
リーン	-6412
入ってる	-6413
,,	-6414
ころ	-6415
混み	-6416
▁ドラ	-6417
っかけ	-6418
見てた	-6419
しょうがない	-6420
きょう	-6421
みんなに	-6422
▁<	-6423
WE	-6424
、4	-6425
間違えた	-6426
......。	-6427
cr	-6428
だもん	-6429
くなってる	-6430
--	-6431
ンゴ	-6432
交通	-6433
汚い	-6434
違反	-6435
知り合い	-6436
いきましょう	-6437
▁ぷ	-6438
emi	-6439
余計に	-6440
あれは	-6441
ナイス	-6442
記念日	-6443
良ければ	-6444
りましょう	-6445
とま	-6446
ぴー	-6447
もろ	-6448
▁突然	-6449
の名前	-6450
かったし	-6451
くらいで	-6452
⌒)	-6453
少女	-6454
会いたかった	-6455
)))))))	-6456
さは	-6457
してるのに	-6458
▁おれ	-6459
近くに	-6460
だったし	-6461
人がいる	-6462
食べたら	-6463
▁しっかり	-6464
̥̥̥̥̥̥̥̥	-6465
LC	-6466
くは	-6467
リオ	-6468
王子	-6469
観戦	-6470
教えてください	-6471
さーん	-6472
マーク	-6473
▁優しい	-6474
▁いち	-6475
ゴール	-6476
空いて	-6477
こんなん	-6478
やがった	-6479
▁リア	-6480
コピー	-6481
▁スマホ	-6482
▁今日で	-6483
聞きたい	-6484
yn	-6485
ピース	-6486
記録	-6487
_11	-6488
冷たい	-6489
AI	-6490
ab	-6491
伸ば	-6492
返せ	-6493
みたけど	-6494
ump	-6495
ポケモン	-6496
に気をつけて	-6497
感じる	-6498
涼しい	-6499
ふふ	-6500
らな	-6501
もらう	-6502
71	-6503
わ笑	-6504
車で	-6505
アメリカ	-6506
可愛すぎ	-6507
cn	-6508
MAP	-6509
いると	-6510
シート	-6511
頂いて	-6512
mazon	-6513
3%	-6514
ありです	-6515
感動した	-6516
みゅ	-6517
増や	-6518
症状	-6519
決めた	-6520
▁@04	-6521
デカ	-6522
が良い	-6523
▁胃	-6524
イカ	-6525
headlines	-6526
れず	-6527
▁イベント	-6528
喜び	-6529
落選	-6530
受けて	-6531
あるので	-6532
ZE	-6533
xy	-6534
呼ぶ	-6535
ひとつ	-6536
Tw	-6537
ますので	-6538
▁バレンタイン	-6539
安倍	-6540
得意	-6541
楽しみにしています	-6542
幼稚	-6543
▁推し	-6544
それぞ	-6545
AL	-6546
のま	-6547
ババ	-6548
ホンマ	-6549
と言って	-6550
ビリ	-6551
あいつ	-6552
あったけど	-6553
多すぎ	-6554
消えた	-6555
(⌒	-6556
OS	-6557
さっ	-6558
her	-6559
ないな	-6560
は本当に	-6561
hh	-6562
ウザ	-6563
聴き	-6564
▁@07	-6565
91	-6566
▁ق	-6567
階段	-6568
▁午後	-6569
▁絡み	-6570
をする	-6571
ワード	-6572
▁@05	-6573
▁☆	-6574
届け	-6575
ウンド	-6576
すこ	-6577
▁火	-6578
々に	-6579
教科	-6580
ron	-6581
くから	-6582
優しく	-6583
ぜんぜん	-6584
かき	-6585
ばり	-6586
懸命	-6587
黄色	-6588
▁ふざ	-6589
うまく	-6590
友達に	-6591
▁特に	-6592
になれる	-6593
たな	-6594
▁こら	-6595
にきて	-6596
▁ゆっくり休んで	-6597
待機	-6598
▁はー	-6599
▁寂しい	-6600
▁すいません	-6601
ue	-6602
▁原	-6603
おれ	-6604
▁呼ばれ	-6605
じゃなく	-6606
行きたくない	-6607
力を	-6608
られたら	-6609
ars	-6610
▁やめ	-6611
今日で	-6612
デザイン	-6613
やったけど	-6614
大歓迎	-6615
▁いって	-6616
忙しくて	-6617
だっけ	-6618
▁@09	-6619
va	-6620
車の	-6621
もなく	-6622
シャレ	-6623
NEWS	-6624
いらない	-6625
つかれた	-6626
んでしょ	-6627
(*_*)	-6628
1120	-6629
になっても	-6630
ポチ	-6631
sakura	-6632
ec	-6633
_05	-6634
▁京都	-6635
壊れた	-6636
するので	-6637
んも	-6638
ファー	-6639
▁普段	-6640
とした	-6641
ほしいです	-6642
オタ	-6643
年前	-6644
漢字	-6645
詳細	-6646
あそぼ	-6647
手に入	-6648
最後に	-6649
ream	-6650
カップル	-6651
げる	-6652
_06	-6653
まであと	-6654
こな	-6655
いますが	-6656
にとって	-6657
よかったね	-6658
鼻水	-6659
いるので	-6660
イタ	-6661
出せ	-6662
▁遅くなって	-6663
%2	-6664
▁を	-6665
晩は	-6666
▁今日も一日	-6667
カタ	-6668
専門	-6669
ワーク	-6670
▁@11	-6671
手術	-6672
短い	-6673
tai	-6674
▁(*	-6675
▁おつ	-6676
の人は	-6677
トレー	-6678
のおかげで	-6679
ドロ	-6680
待た	-6681
予定が	-6682
とうとう	-6683
のイベント	-6684
うつ	-6685
ジム	-6686
ton	-6687
倍率	-6688
小学生	-6689
たか	-6690
育て	-6691
▁さぁ	-6692
少しでも	-6693
hotta	-6694
▁おじ	-6695
▁絡め	-6696
っから	-6697
元気で	-6698
▁なんとか	-6699
BI	-6700
|○	-6701
▁ぬ	-6702
観光	-6703
わせて	-6704
時間で	-6705
mura	-6706
わたしの	-6707
なさすぎて	-6708
してきて	-6709
わかって	-6710
見たけど	-6711
hon	-6712
▁動画	-6713
ちゃーん	-6714
▁॑	-6715
ヤン	-6716
はいい	-6717
いますよ	-6718
仲良くな	-6719
▁宮	-6720
早速	-6721
詰め	-6722
人いる	-6723
心に	-6724
ねーよ	-6725
bl	-6726
ジュース	-6727
になってきた	-6728
今更	-6729
安い	-6730
曲が	-6731
比べ	-6732
日曜	-6733
shu	-6734
いうか	-6735
さんお	-6736
んだろうな	-6737
忘れる	-6738
▁嫌	-6739
の下	-6740
阪神	-6741
ndroid	-6742
オカ	-6743
んやね	-6744
未だに	-6745
▁今度は	-6746
世代	-6747
lll	-6748
sai	-6749
▁地震	-6750
にでも	-6751
取れる	-6752
できたら	-6753
▁あんまり	-6754
久しぶりです	-6755
ها	-6756
▁コン	-6757
にしか	-6758
あたしも	-6759
の間にか	-6760
▁強	-6761
∀・)	-6762
ちゃんを	-6763
しで	-6764
取る	-6765
年会	-6766
共感	-6767
シュー	-6768
▁呼ばれ方	-6769
_|	-6770
劇場	-6771
載せ	-6772
yaa	-6773
GW	-6774
リピ	-6775
のです	-6776
ンプン	-6777
美しい	-6778
mana	-6779
yumi	-6780
▁おかえり	-6781
ウマ	-6782
トゥ	-6783
ign	-6784
いら	-6785
ないように	-6786
サプライズ	-6787
はな	-6788
▁です	-6789
▁画像	-6790
OR	-6791
ia	-6792
ᅲᅲ	-6793
きつ	-6794
▁地元	-6795
キラキラ	-6796
thday	-6797
声を	-6798
者が	-6799
話を	-6800
▁場所	-6801
スマイ	-6802
▁自分が	-6803
やらない	-6804
JR	-6805
▁桜	-6806
背中	-6807
知らず	-6808
ってやつ	-6809
▁和	-6810
▁一緒	-6811
は絶対	-6812
話して	-6813
レポ	-6814
丁寧	-6815
wan	-6816
ネイル	-6817
ベスト	-6818
2017	-6819
メニュー	-6820
(°_°)	-6821
asahi	-6822
▁右	-6823
分も	-6824
食事	-6825
使える	-6826
変えた	-6827
の気持ち	-6828
豪華	-6829
スルー	-6830
込んだ	-6831
招待	-6832
イチャ	-6833
絶望	-6834
いかん	-6835
eeee	-6836
に向けて	-6837
412	-6838
かわいそう	-6839
ヘル	-6840
使用	-6841
釣り	-6842
▁ない	-6843
かんな	-6844
▁美味しそう	-6845
▁再	-6846
修学	-6847
話す	-6848
ura	-6849
の仕事	-6850
mc	-6851
どき	-6852
当日	-6853
▁急に	-6854
男の子	-6855
開けて	-6856
▁日曜日	-6857
しないように	-6858
ったわ	-6859
時間半	-6860
次の日	-6861
良いですね	-6862
バテ	-6863
やなぁ	-6864
chii	-6865
うな	-6866
と思うよ	-6867
たくさんの	-6868
▁チャ	-6869
ハート	-6870
やったのに	-6871
ソー	-6872
マト	-6873
のチケット	-6874
。・	-6875
匂い	-6876
必死	-6877
食欲	-6878
hei	-6879
もので	-6880
リーグ	-6881
働いて	-6882
FE	-6883
使えない	-6884
グリ	-6885
自身	-6886
▁あゆ	-6887
▁早い	-6888
▁頑張	-6889
うちは	-6890
電車で	-6891
スポーツ	-6892
zk	-6893
待つ	-6894
▁我が	-6895
くださって	-6896
～♪	-6897
▁はっ	-6898
カバー	-6899
さんありがとうございます	-6900
▁最終	-6901
が欲しい	-6902
あゆ	-6903
洋服	-6904
大事な	-6905
としては	-6906
▁こっちは	-6907
#)	-6908
に参加	-6909
ラッキー	-6910
決まって	-6911
ほうがいい	-6912
将来	-6913
_04	-6914
初日	-6915
AT	-6916
▁?	-6917
えり	-6918
心者	-6919
▁バカ	-6920
が違う	-6921
▁自分で	-6922
千葉	-6923
宇宙	-6924
▁わざわざ	-6925
ポジ	-6926
渋滞	-6927
それな	-6928
▁いろんな	-6929
aaaaaa	-6930
かま	-6931
様が	-6932
社員	-6933
おいしい	-6934
と思ってたのに	-6935
2/	-6936
エク	-6937
複雑	-6938
といい	-6939
最終回	-6940
続いて	-6941
修学旅行	-6942
/12025	-6943
ガリ	-6944
使え	-6945
描き	-6946
んない	-6947
撮って	-6948
▁the	-6949
使ってる	-6950
残念です	-6951
mic	-6952
▁ひろ	-6953
はある	-6954
半端ない	-6955
関係ない	-6956
ついてる	-6957
すればいい	-6958
んこ	-6959
コト	-6960
▁毎回	-6961
れへん	-6962
幼稚園	-6963
▁ホンマ	-6964
・・・・	-6965
のー	-6966
lov	-6967
UT	-6968
▁痛	-6969
届いて	-6970
▁北海道	-6971
頭が	-6972
▁返信	-6973
今年の	-6974
たいです	-6975
してくれない	-6976
(∩	-6977
ie	-6978
検討	-6979
確率	-6980
積も	-6981
SM	-6982
うっ	-6983
ゴー	-6984
セー	-6985
直し	-6986
選択	-6987
よねぇ	-6988
使った	-6989
思いっきり	-6990
:5	-6991
kj	-6992
花見	-6993
▁んー	-6994
バッチ	-6995
さないで	-6996
があったら	-6997
負けない	-6998
▁第	-6999
越え	-7000
?????	-7001
〜♡	-7002
なな	-7003
みたいなの	-7004
)。	-7005
でかい	-7006
ushi	-7007
▁あらら	-7008
_4	-7009
見れて	-7010
▁こいつ	-7011
申し訳ないです	-7012
演技	-7013
ガンバ	-7014
ZZ	-7015
上司	-7016
誰が	-7017
▁しゃ	-7018
ですし	-7019
撮った	-7020
走って	-7021
勝て	-7022
悩んで	-7023
▁えええ	-7024
アリーナ	-7025
_6	-7026
▁0	-7027
それに	-7028
けないと	-7029
落として	-7030
いそう	-7031
りそう	-7032
▁相変わらず	-7033
と思ったのに	-7034
▁分	-7035
吹き	-7036
岡山	-7037
288	-7038
セブン	-7039
kd	-7040
そんなん	-7041
∩)	-7042
であ	-7043
オッ	-7044
▁逆に	-7045
/838	-7046
ガール	-7047
最終日	-7048
BD	-7049
GET	-7050
できます	-7051
なにも	-7052
▁梅	-7053
もうちょっと	-7054
HP	-7055
今後	-7056
der	-7057
に来	-7058
頼む	-7059
II	-7060
je	-7061
▁野	-7062
すん	-7063
低い	-7064
出張	-7065
助け	-7066
所で	-7067
_03	-7068
book	-7069
▁熱中症	-7070
ate	-7071
こりゃ	-7072
usu	-7073
▁週末	-7074
ージャ	-7075
すること	-7076
▁久しぶりの	-7077
勝負	-7078
130	-7079
見れた	-7080
ーか	-7081
▁から	-7082
▁変な	-7083
いでに	-7084
したし	-7085
ミルク	-7086
美味しく	-7087
/1019	-7088
▁行きたかった	-7089
サボ	-7090
国の	-7091
は無理	-7092
上がって	-7093
が増	-7094
ずき	-7095
遣い	-7096
ですよー	-7097
しちゃって	-7098
sc	-7099
とけ	-7100
▁しんど	-7101
だろうか	-7102
可愛すぎて	-7103
締め	-7104
hara	-7105
ひたすら	-7106
▁石	-7107
プール	-7108
感じが	-7109
▁女の子	-7110
しお	-7111
ぼち	-7112
来てね	-7113
(=	-7114
▁※	-7115
▁妹	-7116
▁いー	-7117
せめて	-7118
意味で	-7119
取れない	-7120
持ってない	-7121
~_	-7122
▁薬	-7123
大切に	-7124
お誕生日おめでとう	-7125
Ra	-7126
ブチ	-7127
乃木	-7128
直接	-7129
▁緊張	-7130
今回の	-7131
決まった	-7132
いただいて	-7133
がんばります	-7134
wwwwwwwwwwwwwwww	-7135
引いて	-7136
はっ	-7137
~_~	-7138
▁アニ	-7139
すすめ	-7140
▁勝手に	-7141
フォーマ	-7142
An	-7143
りた	-7144
土曜	-7145
▁一番	-7146
▁人の	-7147
▁@06	-7148
げぇ	-7149
少年	-7150
ディア	-7151
メガネ	-7152
▁マジか	-7153
いよいよ	-7154
ージョン	-7155
▁腰	-7156
▁女子	-7157
▁身体	-7158
どうしても	-7159
▁ペ	-7160
始まり	-7161
naka	-7162
したいけど	-7163
▁猫	-7164
api	-7165
▁ガチ	-7166
ったし	-7167
来月	-7168
?...	-7169
ちゃんありがとう	-7170
わよ	-7171
外で	-7172
時々	-7173
matsu	-7174
キャンセル	-7175
・°°・	-7176
▁ちゃ	-7177
エンザ	-7178
戻って	-7179
▁ゲーム	-7180
もあるし	-7181
別の	-7182
掛けて	-7183
ᄏᄏ	-7184
▁死	-7185
勤務	-7186
といて	-7187
社会人	-7188
くも	-7189
ともに	-7190
行けて	-7191
リーダー	-7192
お待ちしております	-7193
てぃ	-7194
210	-7195
せずに	-7196
許さない	-7197
吐く	-7198
探し	-7199
神経	-7200
▁ヨ	-7201
見てない	-7202
▁お疲れさま	-7203
)_	-7204
えぐ	-7205
ごろ	-7206
バク	-7207
良き	-7208
見えて	-7209
出てきて	-7210
▁ライ	-7211
ハウス	-7212
綺麗に	-7213
3000	-7214
▁佐	-7215
ぅー	-7216
冗談	-7217
ケータイ	-7218
便利	-7219
すっごい	-7220
▁若	-7221
な笑	-7222
ねて	-7223
ねむ	-7224
戦争	-7225
真似	-7226
▁受験	-7227
晴れて	-7228
おそ	-7229
さび	-7230
扱い	-7231
換え	-7232
演奏	-7233
▁彼氏	-7234
?!?!	-7235
ポテ	-7236
kko	-7237
▁正	-7238
ホル	-7239
抱き	-7240
蒸し	-7241
人いない	-7242
▁買	-7243
▁駅	-7244
ろた	-7245
ムシ	-7246
お天気	-7247
と一緒	-7248
ボード	-7249
くれたら	-7250
っかくの	-7251
寒かった	-7252
Do	-7253
回の	-7254
▁@9	-7255
着いた	-7256
ほしかった	-7257
本日	-7258
▁イケ	-7259
▁録画	-7260
コート	-7261
タバコ	-7262
色々と	-7263
▁あれは	-7264
さないと	-7265
多すぎて	-7266
池袋	-7267
怖くて	-7268
行きましょう	-7269
cu	-7270
頂いた	-7271
なんだろ	-7272
と思ってます	-7273
フォー	-7274
会社の	-7275
かかった	-7276
るといいね	-7277
居る	-7278
▁マイ	-7279
▁英語	-7280
お話し	-7281
ベッド	-7282
子ちゃん	-7283
のう	-7284
受付	-7285
決勝	-7286
やらか	-7287
するけど	-7288
ようかな	-7289
ダッシュ	-7290
いらっしゃ	-7291
PV	-7292
np	-7293
やぞ	-7294
ロウィン	-7295
▁おめでと	-7296
▁懐かしい	-7297
ランキング	-7298
.°	-7299
就活	-7300
っぷり	-7301
の為に	-7302
レース	-7303
だったな	-7304
許せない	-7305
休む	-7306
ビング	-7307
勝手	-7308
募集中	-7309
▁いいなぁ	-7310
(19	-7311
あるよ	-7312
ーーん	-7313
rai	-7314
だけどね	-7315
ますよね	-7316
▁それでも	-7317
▁もしかして	-7318
ノン	-7319
完売	-7320
ストラ	-7321
ワイイ	-7322
が楽しみ	-7323
ッサージ	-7324
真ん	-7325
その後	-7326
saka	-7327
コミ	-7328
朝の	-7329
▁夏休み	-7330
って言った	-7331
よお	-7332
デュ	-7333
駆け	-7334
sen	-7335
▁今朝は	-7336
▁明	-7337
べく	-7338
を作	-7339
グロ	-7340
の調子	-7341
を持って	-7342
味に	-7343
▁DM	-7344
ccer	-7345
しいです	-7346
帰ります	-7347
信じられない	-7348
何処	-7349
風に	-7350
したー	-7351
になるの	-7352
りま	-7353
僕の	-7354
▁17	-7355
▁今月	-7356
MY	-7357
ヘラ	-7358
声かけて	-7359
だったのね	-7360
uw	-7361
やま	-7362
子に	-7363
枚目	-7364
トップ	-7365
ヲタク	-7366
ball	-7367
▁インフル	-7368
がいっぱい	-7369
パーティー	-7370
モテ	-7371
えらい	-7372
blue	-7373
copy	-7374
▁頑張る	-7375
させてもらいました	-7376
Si	-7377
dis	-7378
が制定	-7379
▁わから	-7380
カッコいい	-7381
生の	-7382
パック	-7383
▁すっご	-7384
見つけた	-7385
ビジ	-7386
夫婦	-7387
長く	-7388
bon	-7389
幸せに	-7390
自分を	-7391
すっかり	-7392
。^	-7393
さを	-7394
上の	-7395
僕も	-7396
▁((	-7397
場の	-7398
=3	-7399
SR	-7400
gh	-7401
▁消	-7402
のり	-7403
こんな感じ	-7404
JI	-7405
へへ	-7406
があり	-7407
nico	-7408
FO	-7409
寝たい	-7410
楽しんでね	-7411
見に行	-7412
行くから	-7413
所に	-7414
やめた	-7415
よりは	-7416
▁風邪ひ	-7417
タクシー	-7418
落ち着いて	-7419
位置	-7420
本人	-7421
▁パパ	-7422
▁誰が	-7423
pm	-7424
雑誌	-7425
大丈夫だよ	-7426
▁̈	-7427
ちの	-7428
らは	-7429
切ない	-7430
いますよね	-7431
〜」	-7432
きん	-7433
な事	-7434
フォローして	-7435
私には	-7436
_1	-7437
━━	-7438
でしょうね	-7439
、5	-7440
らす	-7441
ッケ	-7442
通勤	-7443
しては	-7444
良かったですね	-7445
びっくりしました	-7446
=20191206	-7447
▁はあ	-7448
でない	-7449
モリ	-7450
視聴	-7451
集ま	-7452
▁さい	-7453
ってゆ	-7454
みんなの	-7455
してきました	-7456
:7	-7457
思わず	-7458
megu	-7459
してるし	-7460
会で	-7461
最近は	-7462
したらいい	-7463
なと	-7464
余韻	-7465
にしろ	-7466
▁@02	-7467
▁ありゃ	-7468
ませんね	-7469
と思ってたけど	-7470
だょ	-7471
唯一	-7472
届く	-7473
保育園	-7474
楽しむ	-7475
思ってた	-7476
)、	-7477
間は	-7478
頂け	-7479
rekka	-7480
FU	-7481
きが	-7482
がって	-7483
バスケ	-7484
▁教えて	-7485
▁大好きな	-7486
▁知	-7487
キリ	-7488
殺す	-7489
やってない	-7490
って思ったら	-7491
rekkacopy	-7492
▁学	-7493
▁指	-7494
みよ	-7495
ボコ	-7496
!!!(	-7497
のマ	-7498
修理	-7499
▁同じく	-7500
どうしよ	-7501
・°°・(>_<)	-7502
暮らし	-7503
行けば	-7504
心配です	-7505
▁そんなん	-7506
SI	-7507
tal	-7508
気合い	-7509
medium	-7510
con	-7511
カウント	-7512
つかない	-7513
宜しくお願い致します	-7514
My	-7515
のご	-7516
ったく	-7517
そもそも	-7518
なんですよね	-7519
べし	-7520
まみ	-7521
▁by	-7522
プレー	-7523
筋トレ	-7524
想い	-7525
政治	-7526
あいたい	-7527
いますか	-7528
寒いです	-7529
できなくて	-7530
夏の	-7531
満喫	-7532
混んで	-7533
んじゃう	-7534
-`).。	-7535
▁素晴らしい	-7536
困った	-7537
まくって	-7538
eg	-7539
サル	-7540
▁19	-7541
そっか	-7542
ァァァ	-7543
ボタン	-7544
▁完全に	-7545
いいいい	-7546
調整	-7547
400	-7548
書いた	-7549
めー	-7550
テー	-7551
nan	-7552
rii	-7553
▁寝て	-7554
▁だけど	-7555
▁LIVE	-7556
おつかれさま	-7557
本気	-7558
範囲	-7559
ルギー	-7560
ずーっと	-7561
ッて	-7562
ヒロ	-7563
色の	-7564
RY	-7565
前髪	-7566
店で	-7567
にいた	-7568
んだよな	-7569
二日	-7570
けっこう	-7571
ありえない	-7572
dw	-7573
学の	-7574
自体	-7575
LSB	-7576
▁^)	-7577
人って	-7578
珍しく	-7579
rika	-7580
Happy	-7581
なきゃいけない	-7582
▁単	-7583
とおも	-7584
復帰	-7585
ene	-7586
ここで	-7587
ますが	-7588
を見る	-7589
シャン	-7590
フォーマンス	-7591
ウチ	-7592
プル	-7593
研究	-7594
▁やっ	-7595
▁ワイ	-7596
▁一応	-7597
ファンの	-7598
Bl	-7599
GI	-7600
エイ	-7601
以前	-7602
夜中	-7603
ˋ*)	-7604
仕事の	-7605
水分補給	-7606
わた	-7607
ハゲ	-7608
mer	-7609
リフ	-7610
癒し	-7611
watch	-7612
(●	-7613
Ti	-7614
▁悲	-7615
▁彼女	-7616
って事	-7617
スタンプ	-7618
1.	-7619
▁四	-7620
は大	-7621
カム	-7622
んでもら	-7623
って書いて	-7624
おつ	-7625
話題	-7626
体調崩	-7627
(._.	-7628
るぞ	-7629
豆腐	-7630
ity	-7631
近くの	-7632
合わない	-7633
浮か	-7634
みなさん	-7635
よくない	-7636
うそ	-7637
わす	-7638
進化	-7639
に来た	-7640
mh	-7641
合宿	-7642
おいで	-7643
ster	-7644
▁ブログ	-7645
なってる	-7646
▁もう少し	-7647
ZO	-7648
乾燥	-7649
生理	-7650
cky	-7651
▁ハマ	-7652
ライス	-7653
のところ	-7654
wo	-7655
熊本	-7656
ILE	-7657
▁アメ	-7658
しといて	-7659
2%	-7660
dj	-7661
▁び	-7662
何度	-7663
真剣	-7664
▁ジョ	-7665
://7	-7666
可愛すぎる	-7667
ココ	-7668
転売	-7669
Shi	-7670
かかって	-7671
ふざけるな	-7672
良かったら	-7673
と思いますが	-7674
BU	-7675
がり	-7676
きら	-7677
中止	-7678
自慢	-7679
mom	-7680
しくなった	-7681
・°°・。	-7682
Bb	-7683
げろ	-7684
チー	-7685
久保	-7686
編集	-7687
▁!!	-7688
star	-7689
▁最近は	-7690
はじめて	-7691
▁ل	-7692
●)	-7693
したわ	-7694
を食べ	-7695
:0	-7696
しば	-7697
就職	-7698
違和	-7699
aaan	-7700
ますます	-7701
アス	-7702
▁職場	-7703
楽しめ	-7704
嬉しいけど	-7705
物は	-7706
んだぞ	-7707
▁髪の毛	-7708
だろうな	-7709
でしたよ	-7710
"@	-7711
cl	-7712
▁観	-7713
▁道	-7714
を持	-7715
記事	-7716
▁気づ	-7717
ディー	-7718
▁半	-7719
台湾	-7720
契約	-7721
離れ	-7722
ney	-7723
iPad	-7724
いい感じ	-7725
かもしれん	-7726
時計	-7727
まじか	-7728
メロ	-7729
何故か	-7730
mori	-7731
▁みんなで	-7732
ピカ	-7733
呼べ	-7734
top	-7735
ろうね	-7736
テニス	-7737
LOVE	-7738
▁カラオケ	-7739
ちと	-7740
ニョ	-7741
現在	-7742
酔っ	-7743
なぜか	-7744
kh	-7745
らー	-7746
岐阜	-7747
頭に	-7748
TSU	-7749
うるさ	-7750
おいし	-7751
っちょ	-7752
今週も	-7753
ってなって	-7754
3/	-7755
▁くる	-7756
▁先週	-7757
▁夜勤	-7758
PA	-7759
▁伊	-7760
呼吸	-7761
に行き	-7762
卒業式	-7763
泣けて	-7764
生きてる	-7765
▁しばらく	-7766
んじ	-7767
案内	-7768
kot	-7769
テレビで	-7770
109	-7771
そうだけど	-7772
先生に	-7773
あなたの	-7774
br	-7775
クの	-7776
劣化	-7777
ーーーん	-7778
解決	-7779
うざい	-7780
寝不足	-7781
気を付け	-7782
はずなのに	-7783
kw	-7784
▁しょ	-7785
抱っこ	-7786
るという	-7787
書く	-7788
鳥肌	-7789
会えた	-7790
痛くて	-7791
▁うるさい	-7792
▁おはよーございます	-7793
チキン	-7794
がと	-7795
▁他の	-7796
▁飲み	-7797
ダブル	-7798
生誕祭	-7799
してやる	-7800
ってたの	-7801
もあった	-7802
\/	-7803
nm	-7804
▁痛い	-7805
こそは	-7806
▁くっそ	-7807
もらえる	-7808
そうだよね	-7809
っていた	-7810
・°°・(>_<)・°°・。	-7811
なぃ	-7812
カレ	-7813
方向	-7814
歳の	-7815
pro	-7816
周りに	-7817
引いた	-7818
だの	-7819
勇気	-7820
温度	-7821
ves	-7822
▁ダイ	-7823
ノート	-7824
簡単に	-7825
らが	-7826
治療	-7827
ガス	-7828
自動	-7829
ite	-7830
▁me	-7831
▁ヽ	-7832
お父	-7833
あるある	-7834
変化	-7835
暑かった	-7836
らしいです	-7837
rm	-7838
▁隣	-7839
ゆり	-7840
とかに	-7841
みると	-7842
出たら	-7843
売り切	-7844
すっごく	-7845
だっ	-7846
025	-7847
学校の	-7848
かわからん	-7849
ZU	-7850
178	-7851
ニコニコ	-7852
しちゃいました	-7853
▁ع	-7854
600	-7855
うどん	-7856
辞めて	-7857
Vm	-7858
犯罪	-7859
まさに	-7860
パンツ	-7861
レッスン	-7862
▁楽	-7863
と同	-7864
羨ましいです	-7865
▁まる	-7866
▁キャス	-7867
してあげ	-7868
GB	-7869
Te	-7870
とく	-7871
教育	-7872
頭痛い	-7873
mami	-7874
▁帰って	-7875
拡散希望	-7876
いも	-7877
企業	-7878
ゲスト	-7879
af	-7880
∇^)	-7881
▁関西	-7882
さくら	-7883
大切な	-7884
▁どうした	-7885
誤字	-7886
先生の	-7887
いいかな	-7888
▁インスタ	-7889
▁そうだよね	-7890
▁川	-7891
お茶	-7892
▁天気	-7893
ニヤニヤ	-7894
が出る	-7895
ずら	-7896
人達	-7897
期限	-7898
浴衣	-7899
恥ずか	-7900
▁やって	-7901
▁#755	-7902
終わっちゃう	-7903
はダメ	-7904
スタバ	-7905
ハンパ	-7906
APAN	-7907
だろうけど	-7908
になったので	-7909
ZI	-7910
az	-7911
拒否	-7912
スピード	-7913
問い	-7914
強く	-7915
教え	-7916
曇り	-7917
運命	-7918
気軽に	-7919
De	-7920
平成	-7921
hika	-7922
がすごい	-7923
辛かった	-7924
仲良くして	-7925
//∇//)\	-7926
0/	-7927
スーツ	-7928
替えて	-7929
代わりに	-7930
みたかった	-7931
と思ってたら	-7932
地域	-7933
asu	-7934
▁目が	-7935
ジェジュン	-7936
MT	-7937
さや	-7938
たー	-7939
キル	-7940
焦った	-7941
ホームラン	-7942
▁気持ち悪い	-7943
tl	-7944
スクショ	-7945
してなかった	-7946
満員	-7947
田の	-7948
▁だいぶ	-7949
▁昨日から	-7950
くなかった	-7951
=)	-7952
Ai	-7953
nhk	-7954
の動画	-7955
▁つらい	-7956
ハァ	-7957
が出来	-7958
タクト	-7959
▁それで	-7960
。。。。	-7961
聞かせて	-7962
さで	-7963
文章	-7964
̥̥̥	-7965
の方に	-7966
んだん	-7967
FT	-7968
gs	-7969
看護	-7970
自宅	-7971
▁ガン	-7972
しゃん	-7973
▁せめて	-7974
いいから	-7975
えちゃん	-7976
するのが	-7977
ワンマン	-7978
素敵です	-7979
OL	-7980
ッソ	-7981
パチ	-7982
電波	-7983
ロング	-7984
調べたら	-7985
/1202	-7986
ないのかな	-7987
▁そうなんです	-7988
NY	-7989
リハ	-7990
一体	-7991
心を	-7992
わかん	-7993
▁改めて	-7994
▁そうですよね	-7995
足が	-7996
(^○	-7997
▁何故	-7998
やっても	-7999
2.	-8000
やけ	-8001
gun	-8002
▁大人	-8003
でさえ	-8004
やろー	-8005
以外の	-8006
続ける	-8007
いい加減	-8008
なったら	-8009
死ぬほど	-8010
GU	-8011
ul	-8012
▁d	-8013
みんなが	-8014
3%81%	-8015
......(	-8016
してしまいました	-8017
ちこ	-8018
歌詞	-8019
消え	-8020
▁予想	-8021
▁本日の	-8022
ワールド	-8023
ニン	-8024
入荷	-8025
ーカー	-8026
休め	-8027
母親	-8028
▁練習	-8029
申し込み	-8030
ah	-8031
▁べ	-8032
先行	-8033
平気	-8034
腹が	-8035
orz	-8036
んだもん	-8037
思います	-8038
マリ	-8039
ロウ	-8040
anti	-8041
▁ひゃー	-8042
がいない	-8043
(^○^)	-8044
ってことは	-8045
▁お疲れさまでした	-8046
まけ	-8047
▁意味	-8048
よなら	-8049
出会い	-8050
...??	-8051
がいします	-8052
思い出した	-8053
:(	-8054
今も	-8055
▁沢山	-8056
クール	-8057
entry	-8058
行きたいけど	-8059
▁.。.:*☆	-8060
PM	-8061
sd	-8062
い年	-8063
模様	-8064
好きで	-8065
貴重な	-8066
載せて	-8067
かないで	-8068
▁色	-8069
▁最近の	-8070
かもです	-8071
Ku	-8072
ロリ	-8073
アカン	-8074
繋がり	-8075
それぞれ	-8076
どうなる	-8077
ET	-8078
VS	-8079
れい	-8080
足の	-8081
▁14	-8082
▁あった	-8083
~_~;)	-8084
立た	-8085
125	-8086
これ以上	-8087
行ってる	-8088
もぉ	-8089
タメで	-8090
声かけ	-8091
いませんか	-8092
Ba	-8093
奈川	-8094
サラダ	-8095
この時間	-8096
いちゃった	-8097
▁頑張ります	-8098
VA	-8099
▁皆様	-8100
▁たまに	-8101
▁今夜は	-8102
買えない	-8103
失礼しました	-8104
!←	-8105
住み	-8106
景色	-8107
でしか	-8108
なやつ	-8109
▁むしろ	-8110
圧倒的感謝	-8111
▁着	-8112
ェェ	-8113
(@⌒	-8114
▁ハッ	-8115
っすか	-8116
▁ナイス	-8117
だけです	-8118
くま	-8119
チビ	-8120
芸能	-8121
ろうと	-8122
違った	-8123
ってたよ	-8124
▁どんだけ	-8125
▁なんなん	-8126
とか言って	-8127
▁銀	-8128
なめ	-8129
ひま	-8130
⌒@)	-8131
モチベ	-8132
児島	-8133
▁リアル	-8134
どっちも	-8135
眠れない	-8136
があるので	-8137
の朝	-8138
姉妹	-8139
把握	-8140
すべて	-8141
ヒョン	-8142
プレミ	-8143
とかいう	-8144
昨日から	-8145
▁ディズニー	-8146
XX	-8147
ひょ	-8148
れー	-8149
・(	-8150
ものの	-8151
やない	-8152
nyan	-8153
コーナー	-8154
moe	-8155
ばかりで	-8156
ファイナル	-8157
▁主	-8158
の日に	-8159
タイヤ	-8160
ちび	-8161
留守	-8162
謎の	-8163
▁横浜	-8164
さんです	-8165
してると	-8166
レコ	-8167
当落	-8168
疲労	-8169
▁TL	-8170
▁タグ	-8171
ギター	-8172
with	-8173
EXILE	-8174
mj	-8175
円で	-8176
激しい	-8177
▁絵文字	-8178
大丈夫ですよ	-8179
▁星	-8180
結婚式	-8181
▁アイコン	-8182
バージョン	-8183
_/	-8184
tar	-8185
ミュージ	-8186
わなかった	-8187
がありました	-8188
EA	-8189
下げ	-8190
図書	-8191
kaa	-8192
止めて	-8193
▁涙	-8194
月曜	-8195
▁個人	-8196
kura	-8197
レポート	-8198
ツラ	-8199
写真を	-8200
しければ	-8201
kichi	-8202
▁おつかれさま	-8203
NI	-8204
はどこ	-8205
JUMP	-8206
はいけない	-8207
ィィ	-8208
きまーす	-8209
だったんだけど	-8210
ウム	-8211
もうた	-8212
んだー	-8213
マラソン	-8214
の為	-8215
太陽	-8216
お弁当	-8217
の練習	-8218
りましたね	-8219
系の	-8220
んだぁ	-8221
ってますね	-8222
MB	-8223
zm	-8224
▁t	-8225
が一	-8226
ロロ	-8227
!!」	-8228
pop	-8229
▁たい	-8230
たびに	-8231
フレンド	-8232
\(//∇//)\	-8233
京セラ	-8234
悪くて	-8235
諦めて	-8236
Me	-8237
価値	-8238
かわからない	-8239
かっこよかった	-8240
本当にありがとう	-8241
io	-8242
向き	-8243
気も	-8244
空いた	-8245
んだった	-8246
言わないで	-8247
パフォーマンス	-8248
巨人	-8249
師匠	-8250
店の	-8251
披露	-8252
神様	-8253
魔法	-8254
いらん	-8255
の世界	-8256
起きる	-8257
▁お返事	-8258
▁それに	-8259
▁ストレス	-8260
買いました	-8261
Ho	-8262
Ju	-8263
LS	-8264
只今	-8265
マッチ	-8266
えなかった	-8267
▁広島	-8268
▁沖縄	-8269
癒され	-8270
〜!!!	-8271
▁絡めやすさ	-8272
▁健	-8273
あざ	-8274
サク	-8275
私を	-8276
▁プリ	-8277
▁人生	-8278
なんの	-8279
pink	-8280
さんって	-8281
当たって	-8282
そうですよね	-8283
ペコ	-8284
染め	-8285
目線	-8286
飼い	-8287
▁イヤ	-8288
行きました	-8289
orning	-8290
サマ	-8291
祈り	-8292
荒れ	-8293
AKB	-8294
にいく	-8295
でいっぱい	-8296
呼んでください	-8297
··	-8298
国際	-8299
多く	-8300
あした	-8301
キモい	-8302
お気に入り	-8303
KY	-8304
おん	-8305
mel	-8306
ペンミ	-8307
初心者	-8308
嫌いな	-8309
ッピング	-8310
どうやって	-8311
見れなかった	-8312
ぼく	-8313
んにち	-8314
2018	-8315
▁内	-8316
毎週	-8317
帰った	-8318
hn	-8319
の本	-8320
▁ピピー	-8321
最高でした	-8322
big	-8323
スープ	-8324
急いで	-8325
▁お願いします	-8326
_0	-8327
れよ	-8328
▁正直	-8329
歌って	-8330
違和感	-8331
▁こんばんわ	-8332
フォロワーさんの	-8333
FA	-8334
しき	-8335
固定	-8336
閉店	-8337
▁今更	-8338
のでは	-8339
kiss	-8340
▁そしたら	-8341
がね	-8342
妊娠	-8343
▁()	-8344
が来て	-8345
こっちは	-8346
▁ラスト	-8347
▁欲しい	-8348
話したい	-8349
ファイティン	-8350
PO	-8351
いだ	-8352
今頃	-8353
_02	-8354
saa	-8355
さんには	-8356
▁今日もよろしくお願いします	-8357
od	-8358
▁こー	-8359
終わってから	-8360
アピ	-8361
リム	-8362
武器	-8363
lock	-8364
最初から	-8365
全身	-8366
ですー	-8367
シャー	-8368
▁是非また	-8369
計算	-8370
▁寝る	-8371
売って	-8372
は大丈夫	-8373
_−	-8374
we	-8375
ぶる	-8376
最大	-8377
殺意	-8378
DEL	-8379
▁16	-8380
幕張	-8381
鹿児島	-8382
La	-8383
おき	-8384
しぃ	-8385
ラル	-8386
代目	-8387
消し	-8388
猛暑	-8389
▁コー	-8390
っそり	-8391
りすぎ	-8392
どうして	-8393
言われたら	-8394
▁成	-8395
事実	-8396
メンテ	-8397
▁付き合	-8398
見ながら	-8399
qn	-8400
▁甘	-8401
ウキ	-8402
じゃねー	-8403
たいけど	-8404
が高	-8405
▁スト	-8406
嬉しいよ	-8407
ルン	-8408
浴び	-8409
向こう	-8410
笑顔が	-8411
いただきます	-8412
jd	-8413
収録	-8414
一生懸命	-8415
になるから	-8416
って言ってる	-8417
さの	-8418
予告	-8419
地方	-8420
顔で	-8421
乗り切	-8422
生まれ	-8423
▁そっち	-8424
怒られる	-8425
ビックリしました	-8426
マック	-8427
あるよね	-8428
lp	-8429
NOW	-8430
▁ツイ	-8431
取った	-8432
(^∇^)	-8433
エエ	-8434
態度	-8435
▁こわ	-8436
▁撮影	-8437
しようと	-8438
障害	-8439
飽き	-8440
▁早速	-8441
遅れた	-8442
▁ネット	-8443
だったわ	-8444
れるかな	-8445
時間くらい	-8446
JO	-8447
jy	-8448
ぱん	-8449
様な	-8450
終わっちゃった	-8451
ちに	-8452
どり	-8453
▁結婚	-8454
まとめ	-8455
バッグ	-8456
だったり	-8457
ありますように	-8458
れな	-8459
キム	-8460
NHK	-8461
sky	-8462
▁24	-8463
▁おも	-8464
▁何が	-8465
ること	-8466
naya	-8467
いですね	-8468
gm	-8469
taa	-8470
▁一人	-8471
気にな	-8472
▁......	-8473
飛ぶ	-8474
sora	-8475
〜...	-8476
▁こちらは	-8477
_(	-8478
けー	-8479
gle	-8480
▁久々の	-8481
▁田	-8482
顔面	-8483
ぉぉぉ	-8484
さって	-8485
取れた	-8486
ましょー	-8487
気持ちは	-8488
おに	-8489
▁@03	-8490
おちゃん	-8491
さないように	-8492
楽しかったよ	-8493
cp	-8494
新潟	-8495
mei	-8496
だけが	-8497
の時の	-8498
ご飯食べ	-8499
クーラー	-8500
予定です	-8501
☆*:.。.	-8502
▁ぜ	-8503
々の	-8504
▁それも	-8505
とか言う	-8506
のことを	-8507
▁絡みやすさ	-8508
CC	-8509
▁岩	-8510
rie	-8511
お祝い	-8512
ったん	-8513
1998	-8514
▁قال	-8515
ホワイト	-8516
テム	-8517
天才	-8518
LDH	-8519
っくん	-8520
暑くて	-8521
しますよ	-8522
(#	-8523
者は	-8524
から出	-8525
Jr	-8526
保険	-8527
内の	-8528
案件	-8529
逆転	-8530
ぇぇぇ	-8531
ベンジ	-8532
▁いつでも	-8533
ブー	-8534
▁うー	-8535
しんで	-8536
シャワー	-8537
むず	-8538
許す	-8539
レンダー	-8540
泣いてる	-8541
でや	-8542
▁しゅ	-8543
mizu	-8544
パンパン	-8545
上がった	-8546
分かって	-8547
フン	-8548
常識	-8549
数が	-8550
得ない	-8551
なのです	-8552
ギャップ	-8553
▁ラーメン	-8554
デイ	-8555
▁関係	-8556
似合い	-8557
早く治	-8558
SMAP	-8559
ポスター	-8560
▁そうです	-8561
気になります	-8562
▁Android	-8563
なつ	-8564
▁うう	-8565
なのよ	-8566
してたの	-8567
でよかった	-8568
んでもない	-8569
▁絵	-8570
コメ	-8571
協会	-8572
バイス	-8573
以外は	-8574
(._.)	-8575
pt	-8576
▁首	-8577
おし	-8578
速度	-8579
∀;)	-8580
▁渋谷	-8581
日本人	-8582
素直に	-8583
やったから	-8584
('	-8585
TW	-8586
bn	-8587
かつ	-8588
はー	-8589
クス	-8590
ラム	-8591
労働	-8592
経つ	-8593
▁@19	-8594
っちまった	-8595
▁最後に一言	-8596
RS	-8597
あわせ	-8598
これも	-8599
んなら	-8600
▁月曜日	-8601
に対して	-8602
ーーーーーーー	-8603
JY	-8604
の手	-8605
オオ	-8606
嘔吐	-8607
発送	-8608
▁無事に	-8609
クッキー	-8610
っています	-8611
カッコイイ	-8612
ひん	-8613
▁疲れ	-8614
たった	-8615
スゴイ	-8616
▁お気に入り	-8617
JA	-8618
ゃん	-8619
エレ	-8620
心地	-8621
っちり	-8622
可愛いです	-8623
Xx	-8624
の国	-8625
をご	-8626
語り	-8627
▁お姉	-8628
できません	-8629
QU	-8630
奈良	-8631
目的	-8632
集め	-8633
開いて	-8634
そしたら	-8635
ネタバレ	-8636
▁ぜひぜひ	-8637
▁弟	-8638
のファン	-8639
fl	-8640
▁古	-8641
dog	-8642
に感謝	-8643
られん	-8644
きり	-8645
ツィ	-8646
したん	-8647
バトル	-8648
違って	-8649
終わらない	-8650
行かなきゃ	-8651
うらやましい	-8652
cnd	-8653
ちょう	-8654
ぃちゃん	-8655
bz	-8656
▁連	-8657
怒る	-8658
水曜日	-8659
▁金曜日	-8660
れちゃう	-8661
archi	-8662
かもしれないけど	-8663
引き続きよろしくお願いします	-8664
EL	-8665
セミ	-8666
・`	-8667
▁グッズ	-8668
めちゃん	-8669
たのしかった	-8670
元号	-8671
くるの	-8672
▁こない	-8673
▁はずれ	-8674
▁忙しい	-8675
ントリー	-8676
▁お誕生日おめでとう	-8677
でい	-8678
ネコ	-8679
待て	-8680
っきー	-8681
▁いいな	-8682
しなさい	-8683
▁結果は残念	-8684
で寝	-8685
地下	-8686
新曲	-8687
amo	-8688
ダメだ	-8689
るー	-8690
先週	-8691
現地	-8692
シング	-8693
っちゃい	-8694
▁イケメン	-8695
みや	-8696
を観	-8697
重要	-8698
che	-8699
すげー	-8700
andy	-8701
show	-8702
売ってる	-8703
▁ي	-8704
▁好	-8705
提出	-8706
贅沢	-8707
骨折	-8708
▁感動	-8709
くなったら	-8710
言ってもら	-8711
遊びに来て	-8712
:6	-8713
gn	-8714
だす	-8715
の音	-8716
ティスト	-8717
大丈夫か	-8718
jk	-8719
ジラ	-8720
ヒョ	-8721
注射	-8722
って言われる	-8723
▁味	-8724
で出	-8725
まに	-8726
アの	-8727
体に	-8728
時が	-8729
油断	-8730
解散	-8731
eee	-8732
▁さみ	-8733
見かけ	-8734
/928	-8735
▁嬉しいです	-8736
平和	-8737
のお客	-8738
らして	-8739
時過ぎ	-8740
misa	-8741
しようかな	-8742
FM	-8743
YS	-8744
福島	-8745
とかの	-8746
言葉を	-8747
リリイベ	-8748
▁12/11	-8749
分に	-8750
速報	-8751
▁えり	-8752
ピアス	-8753
駐車場	-8754
ドライブ	-8755
に向かって	-8756
申し訳ありません	-8757
してくれてありがとう	-8758
GP	-8759
▁麻	-8760
叫び	-8761
▁なな	-8762
▁来て	-8763
れてて	-8764
koto	-8765
しすぎた	-8766
eight	-8767
って感じで	-8768
オラ	-8769
武道	-8770
飲め	-8771
メチャ	-8772
やだやだ	-8773
WI	-8774
▁レイ	-8775
行けなかった	-8776
ちが	-8777
ちー	-8778
sou	-8779
って話	-8780
があるの	-8781
ってゆう	-8782
オシャレ	-8783
言っても	-8784
lower	-8785
リンピック	-8786
すず	-8787
ドー	-8788
出身	-8789
時点で	-8790
asns	-8791
に住んで	-8792
多いから	-8793
aging	-8794
▁CANA	-8795
おねがいします	-8796
本番	-8797
突き	-8798
800	-8799
やること	-8800
怒られた	-8801
1120/	-8802
りたいです	-8803
の声	-8804
ギレ	-8805
クズ	-8806
塗り	-8807
News	-8808
xt	-8809
ゆこと	-8810
忘年会	-8811
▁こんなん	-8812
チャレンジしてください	-8813
cd	-8814
fd	-8815
でん	-8816
らへん	-8817
タイト	-8818
antiaging	-8819
とー	-8820
ヤダ	-8821
報道	-8822
速攻	-8823
cndl	-8824
riko	-8825
▁なんや	-8826
良い一日	-8827
▁CANADEL	-8828
まで毎日応募できますので	-8829
を引き続きよろしくお願いします	-8830
▁是非またチャレンジしてください	-8831
_`	-8832
みつ	-8833
牛乳	-8834
▁俺が	-8835
〜??	-8836
伝えて	-8837
過ごせ	-8838
▁ツイッター	-8839
:9	-8840
二郎	-8841
▁あざ	-8842
さんとの	-8843
疲れてる	-8844
▁そうだよ	-8845
あったから	-8846
Bi	-8847
sz	-8848
増え	-8849
発生	-8850
いいや	-8851
AS	-8852
▁」	-8853
▁彼	-8854
の味	-8855
オイ	-8856
流星	-8857
許せ	-8858
にくい	-8859
desu	-8860
じゃねぇ	-8861
うさ	-8862
くだけ	-8863
なのが	-8864
間違え	-8865
▁チャン	-8866
ぼう	-8867
喋り	-8868
▁目の	-8869
▁@24	-8870
ガンガン	-8871
あっという間	-8872
mw	-8873
でー	-8874
描く	-8875
EXO	-8876
んごい	-8877
くれてる	-8878
この時期	-8879
出来たら	-8880
...!?	-8881
kz	-8882
▁物	-8883
歩く	-8884
kom	-8885
▁気分	-8886
寒いですね	-8887
pn	-8888
じて	-8889
単位	-8890
の準備	-8891
乃木坂	-8892
arin	-8893
スカート	-8894
ボロボロ	-8895
させて頂きます	-8896
7/	-8897
TH	-8898
全滅	-8899
数学	-8900
機種	-8901
チョン	-8902
ピアノ	-8903
Bv	-8904
▁鬼	-8905
のア	-8906
バグ	-8907
家庭	-8908
話せ	-8909
for	-8910
なんでしょう	-8911
わるい	-8912
待ち遠	-8913
求めて	-8914
▁あいつ	-8915
そんな事	-8916
▁予定	-8917
とこで	-8918
ウェイ	-8919
ないかな	-8920
▁クリスマス	-8921
.^	-8922
▁嵐	-8923
稽古	-8924
規制	-8925
pat	-8926
ハンド	-8927
人には	-8928
良くて	-8929
どころか	-8930
1_	-8931
ビル	-8932
引く	-8933
yoo	-8934
集まり	-8935
って言わ	-8936
どうにか	-8937
▁だいすき	-8938
もあります	-8939
思い出して	-8940
▁リツイート	-8941
=1	-8942
そら	-8943
居酒	-8944
ket	-8945
▁そも	-8946
きてください	-8947
▁名	-8948
▁服	-8949
渡し	-8950
men	-8951
食べ物	-8952
tomi	-8953
しなかった	-8954
みたいだね	-8955
CN	-8956
▁都	-8957
eru	-8958
ざまし	-8959
の人の	-8960
痩せて	-8961
分くらい	-8962
気持ちを	-8963
OO	-8964
一個	-8965
割り	-8966
匿名	-8967
気の	-8968
直ぐ	-8969
アクセ	-8970
▁どうしよう	-8971
JU	-8972
pq	-8973
▁友	-8974
君が	-8975
消費	-8976
▁けん	-8977
good	-8978
▁ちゃん	-8979
パーティ	-8980
幸せです	-8981
▁やったー	-8982
かと思って	-8983
しくなって	-8984
マッサージ	-8985
▁切	-8986
駅で	-8987
ool	-8988
ないね	-8989
に会い	-8990
▁お休み	-8991
止まらん	-8992
▁どんどん	-8993
Le	-8994
のカ	-8995
出発	-8996
終電	-8997
蔵庫	-8998
騒ぎ	-8999
の試合	-9000
iiii	-9001
だったんですか	-9002
QT	-9003
判断	-9004
月末	-9005
りますよね	-9006
▁別	-9007
ニキ	-9008
une	-9009
▁普通	-9010
回目の	-9011
。・°°・(>_<)・°°・。	-9012
▁↑	-9013
par	-9014
▁ロー	-9015
ううう	-9016
買える	-9017
サブ	-9018
boy	-9019
だと思ってた	-9020
son	-9021
追いつ	-9022
感じです	-9023
archives	-9024
▁歯	-9025
さて	-9026
もと	-9027
歌声	-9028
hat	-9029
中学生	-9030
人から	-9031
人たち	-9032
落ちる	-9033
choco	-9034
のまま	-9035
増える	-9036
ring	-9037
▁なので	-9038
▁X	-9039
シル	-9040
白い	-9041
緊急	-9042
▁期待	-9043
▁関東	-9044
きらい	-9045
まずは	-9046
もはや	-9047
きたくない	-9048
150	-9049
だなー	-9050
▁;∀;)	-9051
dr	-9052
▁吉	-9053
家は	-9054
方々	-9055
方で	-9056
きたよ	-9057
どうも	-9058
base	-9059
からずっと	-9060
.1	-9061
君は	-9062
^.^	-9063
いたよ	-9064
お友達	-9065
になに	-9066
わーい	-9067
ドライ	-9068
抜けて	-9069
嬉しくて	-9070
▁終わった	-9071
なのですが	-9072
からもう	-9073
でもある	-9074
付き合い	-9075
ES	-9076
すね	-9077
一枚	-9078
逮捕	-9079
▁スゴ	-9080
とか思	-9081
午前中	-9082
▁カッコ	-9083
にかけて	-9084
ふざけんな	-9085
んでしょうね	-9086
アップデート	-9087
ちゃんおはよう	-9088
手で	-9089
金曜	-9090
ステム	-9091
離れて	-9092
あああああ	-9093
アレルギー	-9094
Vi	-9095
▁残	-9096
きま	-9097
行為	-9098
学校で	-9099
ると嬉しいです	-9100
ZA	-9101
▁理	-9102
めぐ	-9103
予防	-9104
▁体育	-9105
に会う	-9106
▁本日は	-9107
イヤホン	-9108
楽しもう	-9109
見つから	-9110
▁このまま	-9111
▁メンバー	-9112
出来なかった	-9113
副業	-9114
器用	-9115
通信	-9116
▁つら	-9117
っぱいい	-9118
リアタイ	-9119
会えたら	-9120
なんやけど	-9121
会ってない	-9122
fy	-9123
削除	-9124
夏は	-9125
方を	-9126
きもい	-9127
慣れて	-9128
▁ちょー	-9129
武道館	-9130
行っても	-9131
赤ちゃん	-9132
▁かっこいい	-9133
に座	-9134
漏れ	-9135
話が	-9136
▁夕方	-9137
post	-9138
rain	-9139
たまらん	-9140
ファイル	-9141
▁すき	-9142
まずい	-9143
ールで	-9144
お母さん	-9145
っといて	-9146
なんかな	-9147
プンプン	-9148
フォロワーさん	-9149
FI	-9150
ミネ	-9151
勝つ	-9152
頃の	-9153
ときの	-9154
らいら	-9155
イング	-9156
が大好き	-9157
久しぶりの	-9158
▁加	-9159
さむ	-9160
夢を	-9161
のおば	-9162
に会えて	-9163
▁そもそも	-9164
はやっぱり	-9165
みようかな	-9166
!)	-9167
腹痛	-9168
非常に	-9169
koji	-9170
に見える	-9171
悪かった	-9172
▁あげたい	-9173
在庫	-9174
としか	-9175
リート	-9176
良くな	-9177
言うと	-9178
▁こちらこそよろしくお願いします	-9179
jr	-9180
▁=	-9181
歴史	-9182
ークル	-9183
帰れる	-9184
すごいね	-9185
でもない	-9186
ションの	-9187
見つけて	-9188
Gi	-9189
カメ	-9190
勿体	-9191
達に	-9192
ようか	-9193
ガチで	-9194
に乗って	-9195
せよ	-9196
デオ	-9197
<;)	-9198
▁ウチ	-9199
木曜日	-9200
▁仲良く	-9201
パーカー	-9202
TR	-9203
▁作	-9204
oor	-9205
バンク	-9206
▁関	-9207
▁札幌	-9208
々しい	-9209
...!!!	-9210
順位	-9211
しろよ	-9212
やつは	-9213
ベース	-9214
立って	-9215
▁色んな	-9216
いるのに	-9217
がたくさん	-9218
Ex	-9219
ゆか	-9220
クン	-9221
ナラ	-9222
回り	-9223
▁゚゚	-9224
▁実際	-9225
が必要	-9226
動いて	-9227
勝った	-9228
受けた	-9229
居酒屋	-9230
日焼け	-9231
少しずつ	-9232
isuke	-9233
world	-9234
でしかない	-9235
初めまして	-9236
レジ	-9237
センチ	-9238
変える	-9239
▁またまた	-9240
ねる	-9241
の夜	-9242
申請	-9243
▁いっ	-9244
▁大学	-9245
あげた	-9246
大変そう	-9247
bt	-9248
ui	-9249
解放	-9250
に向か	-9251
んやで	-9252
話した	-9253
くちゃん	-9254
ボーナス	-9255
力の	-9256
好評	-9257
道路	-9258
mal	-9259
sty	-9260
▁洗濯	-9261
ってくれたら	-9262
▁知らなかった	-9263
▁美味しかった	-9264
させてください	-9265
sr	-9266
とか言	-9267
(><)	-9268
milk	-9269
聴きたい	-9270
もったいない	-9271
▁開	-9272
げん	-9273
帽子	-9274
▁ゲロ	-9275
状態で	-9276
近くで	-9277
kara	-9278
スマイル	-9279
!♡	-9280
▁八	-9281
▁香	-9282
こま	-9283
ばば	-9284
ツボ	-9285
乗る	-9286
乙女	-9287
博多	-9288
控え	-9289
hama	-9290
オリティ	-9291
かも知	-9292
ーって	-9293
間に合わない	-9294
わあ	-9295
告知	-9296
すべき	-9297
ガッツ	-9298
はいつも	-9299
^.^#)	-9300
4/	-9301
BL	-9302
666	-9303
`)・	-9304
がまた	-9305
レード	-9306
られてた	-9307
▁合	-9308
ケツ	-9309
冷や	-9310
0%	-9311
ぬい	-9312
クマ	-9313
働く	-9314
通常	-9315
▁かず	-9316
らしいよ	-9317
ログイン	-9318
をお過ごしください	-9319
Po	-9320
なぅ	-9321
一本	-9322
～」	-9323
の子は	-9324
▁昨日も	-9325
事情	-9326
▁ハン	-9327
▁参加	-9328
▁感謝	-9329
っこり	-9330
手伝い	-9331
2012	-9332
嬉しすぎる	-9333
(~_~;)	-9334
られなかった	-9335
楽しみですね	-9336
▁“	-9337
▁多	-9338
ゴリ	-9339
年で	-9340
恐る	-9341
コミュ	-9342
▁トイレ	-9343
ものです	-9344
愛してる	-9345
見てると	-9346
偉い	-9347
山田	-9348
新規	-9349
▁みな	-9350
▁タメ	-9351
のにな	-9352
バナナ	-9353
にのって	-9354
カワイイ	-9355
そん	-9356
で大	-9357
神社	-9358
議員	-9359
からって	-9360
そういえば	-9361
▁御	-9362
負担	-9363
tou	-9364
▁野球	-9365
日連続	-9366
楽しくて	-9367
mitsu	-9368
▁コンビニ	-9369
ればよかった	-9370
GH	-9371
の色	-9372
▁素敵	-9373
▽⌒)	-9374
の前に	-9375
リア充	-9376
りません	-9377
ひとりぼっち	-9378
知らんかった	-9379
▁肉	-9380
きー	-9381
るる	-9382
▁つい	-9383
▁クラ	-9384
セリフ	-9385
cial	-9386
かなりの	-9387
しましたが	-9388
劣化コピー	-9389
BF	-9390
GD	-9391
たけ	-9392
ris	-9393
もんだ	-9394
しようね	-9395
ってくらい	-9396
になってて	-9397
暖かくして	-9398
がんばってね	-9399
JJ	-9400
gy	-9401
ひな	-9402
▁頭痛	-9403
だして	-9404
ホット	-9405
そうなんだ	-9406
知りました	-9407
Al	-9408
GS	-9409
任せ	-9410
夜も	-9411
ary	-9412
図書館	-9413
最近の	-9414
▁まずは	-9415
そうなんですか	-9416
せぇ	-9417
を取	-9418
期の	-9419
ソース	-9420
似すぎて	-9421
くれました	-9422
ピーポーピーポー	-9423
AO	-9424
が大	-9425
▁休憩	-9426
ご来店	-9427
やんか	-9428
羨まし	-9429
会いたいよ	-9430
くなっちゃう	-9431
wwwwwww	-9432
8/	-9433
ムー	-9434
許可	-9435
101	-9436
▁前に	-9437
ロット	-9438
進んで	-9439
れなくな	-9440
ラッシュ	-9441
Yahoo	-9442
CS	-9443
TY	-9444
ベイ	-9445
動く	-9446
きゅん	-9447
ランプ	-9448
おわった	-9449
やられた	-9450
聞け	-9451
abe	-9452
ung	-9453
▁ひゃ	-9454
▁まり	-9455
らかに	-9456
おっさん	-9457
問い合わせ	-9458
ってもらった	-9459
踏み	-9460
ard	-9461
▁13	-9462
んかい	-9463
ンドン	-9464
・。)	-9465
▁こちらこそありがとうございます	-9466
▁翔	-9467
を出	-9468
愛知	-9469
(-_-	-9470
どれだけ	-9471
▁了解です	-9472
nt	-9473
ちぃ	-9474
体の	-9475
悪口	-9476
▁ドン	-9477
どこの	-9478
きっかけ	-9479
オーバー	-9480
プレゼン	-9481
gt	-9482
ux	-9483
ote	-9484
で告白	-9485
▁知らない	-9486
餃子	-9487
▁ال	-9488
▁さっ	-9489
リップ	-9490
hide	-9491
でやって	-9492
々木	-9493
たた	-9494
アツ	-9495
tch	-9496
▁んで	-9497
▁ジュ	-9498
▁一瞬	-9499
▁起き	-9500
の中の	-9501
たる	-9502
も同じ	-9503
したいな	-9504
くらいしか	-9505
ってますよ	-9506
!!!!!!!!!!!!!!!!	-9507
Pi	-9508
ありがた	-9509
こんなこと	-9510
タイミングで	-9511
MU	-9512
hs	-9513
プ画	-9514
飲ま	-9515
104	-9516
づらい	-9517
baby	-9518
りますよ	-9519
超え	-9520
tte	-9521
人多い	-9522
erry	-9523
始まって	-9524
▁@____	-9525
bf	-9526
が来	-9527
ふら	-9528
一発	-9529
朝は	-9530
122	-9531
▁オレ	-9532
ケート	-9533
夜中に	-9534
無くて	-9535
って思ったけど	-9536
PR	-9537
cs	-9538
ブツ	-9539
少な	-9540
▁よろ	-9541
のお店	-9542
悲しみ	-9543
言うて	-9544
回転	-9545
で見た	-9546
周りの	-9547
3%83%	-9548
ぴょんぴょん	-9549
がる	-9550
にょ	-9551
今すぐ	-9552
今でも	-9553
るからね	-9554
泣いちゃう	-9555
CI	-9556
bd	-9557
中身	-9558
fun	-9559
kao	-9560
しまく	-9561
▁こりゃ	-9562
▁送	-9563
オム	-9564
徹夜	-9565
の予定	-9566
ホラー	-9567
なんとも	-9568
入れない	-9569
▁よろしくです	-9570
BQ	-9571
めろ	-9572
用事	-9573
納豆	-9574
▁お父	-9575
ぐちゃ	-9576
チェン	-9577
lack	-9578
にしてる	-9579
▁お誕生日おめでとうございます	-9580
回収	-9581
走る	-9582
333	-9583
の人と	-9584
寒いね	-9585
でしたら	-9586
ですので	-9587
呼んだら	-9588
paign	-9589
の女	-9590
中学	-9591
っかな	-9592
引っ越	-9593
飲みたい	-9594
アーティスト	-9595
hm	-9596
▁辛	-9597
ソワ	-9598
パワ	-9599
▁わか	-9600
バレー	-9601
ってなに	-9602
れますように	-9603
しつ	-9604
▁前の	-9605
、10	-9606
PU	-9607
yf	-9608
エリア	-9609
トレーニング	-9610
▁光	-9611
宣伝	-9612
適当に	-9613
▁ギャ	-9614
いい人	-9615
不安定	-9616
suzu	-9617
気がしない	-9618
〃)	-9619
あく	-9620
みゆ	-9621
カチ	-9622
プチ	-9623
会員	-9624
悪化	-9625
細い	-9626
連れ	-9627
mie	-9628
▁家に	-9629
大変だ	-9630
/566	-9631
▁こわい	-9632
さんにも	-9633
わないと	-9634
癒される	-9635
Sw	-9636
ud	-9637
カオ	-9638
慎吾	-9639
▁is	-9640
火曜日	-9641
anna	-9642
っっっっ	-9643
スタンド	-9644
分かります	-9645
campaign	-9646
Md	-9647
(*≧	-9648
詳しい	-9649
ジャパン	-9650
ってないのに	-9651
なかったのに	-9652
ガク	-9653
コマ	-9654
発散	-9655
▁21	-9656
▁想像	-9657
明るい	-9658
貰って	-9659
悪くない	-9660
そうだから	-9661
さも	-9662
に浸	-9663
ホモ	-9664
強制	-9665
▁綺麗	-9666
じゃね	-9667
フォト	-9668
勢いで	-9669
▁b	-9670
▁おそ	-9671
▁悪い	-9672
あると	-9673
の画像	-9674
risa	-9675
MG	-9676
▁DVD	-9677
▁今週は	-9678
お誕生日	-9679
-1	-9680
▁音	-9681
よこ	-9682
オク	-9683
政権	-9684
の影響	-9685
kuru	-9686
いただいた	-9687
soccer	-9688
DL	-9689
mir	-9690
大変な	-9691
2015	-9692
だいたい	-9693
はずっと	-9694
プリント	-9695
になってしまう	-9696
oi	-9697
退院	-9698
▁ぎゃ	-9699
いつつ	-9700
の方も	-9701
んなよ	-9702
fuji	-9703
▁絶対に	-9704
たまたま	-9705
キャンプ	-9706
qq	-9707
▁耳	-9708
さり	-9709
譲って	-9710
辞める	-9711
ってゆー	-9712
ドリンク	-9713
じゃないし	-9714
CT	-9715
DU	-9716
外国	-9717
感激	-9718
鈴木	-9719
Aya	-9720
萎える	-9721
5000	-9722
に行けない	-9723
買ってきた	-9724
▁わかります	-9725
ズの	-9726
噛み	-9727
探す	-9728
▁おう	-9729
のおじ	-9730
居ない	-9731
すぎやろ	-9732
JAPAN	-9733
先の	-9734
濃い	-9735
mio	-9736
▁気が	-9737
▁試合	-9738
良いね	-9739
▁起きて	-9740
に行ける	-9741
オレンジ	-9742
tatsu	-9743
好きだから	-9744
▁°	-9745
を送	-9746
ナム	-9747
玄関	-9748
_24	-9749
▁日曜	-9750
neko	-9751
お知らせ	-9752
6/	-9753
向け	-9754
無限	-9755
erz	-9756
▁ねむ	-9757
▁結果	-9758
で一番	-9759
ようね	-9760
ランダ	-9761
,000	-9762
システム	-9763
・・・。	-9764
したんだけど	-9765
▁特	-9766
馳走	-9767
▁)♡	-9768
カープ	-9769
付ける	-9770
行くよ	-9771
にします	-9772
アイテム	-9773
▁メッセージ	-9774
サム	-9775
度の	-9776
▁予約	-9777
▁人間	-9778
▁情報	-9779
ポテト	-9780
諦めた	-9781
ごめんよ	-9782
するのに	-9783
よろしくお願い致します	-9784
しや	-9785
下に	-9786
県民	-9787
赤い	-9788
111	-9789
きれい	-9790
サイド	-9791
ほしいな	-9792
コスプレ	-9793
きちゃった	-9794
と思うので	-9795
jw	-9796
͟͞	-9797
の花	-9798
日程	-9799
眼鏡	-9800
人とか	-9801
いつまで	-9802
......!	-9803
ずる	-9804
なぎ	-9805
代行	-9806
刺激	-9807
勢い	-9808
哈哈	-9809
物語	-9810
達と	-9811
VER	-9812
の意味	-9813
もあり	-9814
してきます	-9815
▁言	-9816
くい	-9817
▁まい	-9818
▁相手	-9819
振り返	-9820
らいたい	-9821
Wk	-9822
純粋	-9823
驚きました	-9824
萌え	-9825
軽い	-9826
kaz	-9827
ませんよ	-9828
われてる	-9829
優しくて	-9830
▁雷	-9831
さわ	-9832
しめ	-9833
ハル	-9834
指定	-9835
雪降	-9836
▁ユニ	-9837
してよ	-9838
ところに	-9839
思い出す	-9840
行けなくて	-9841
▁丸	-9842
。-	-9843
処理	-9844
▁うらや	-9845
すごいな	-9846
怒ってる	-9847
Ni	-9848
Se	-9849
秒で	-9850
koo	-9851
pen	-9852
▁僕の	-9853
かさん	-9854
くっそ	-9855
ねぇー	-9856
リアン	-9857
読んだ	-9858
▁あーー	-9859
▁でしょ	-9860
最高です	-9861
かもだけど	-9862
HR	-9863
メイ	-9864
価格	-9865
▁大き	-9866
丁寧に	-9867
yume	-9868
ちゃんって	-9869
応援してる	-9870
uk	-9871
▁ぁ	-9872
▁重	-9873
はね	-9874
キチ	-9875
呑み	-9876
確保	-9877
税金	-9878
▁エア	-9879
だねー	-9880
住んで	-9881
誘って	-9882
怖いです	-9883
過ごし下さい	-9884
「」	-9885
ワロ	-9886
条件	-9887
解除	-9888
達も	-9889
が高い	-9890
友達の	-9891
ゴロゴロ	-9892
初めての	-9893
頑張るぞ	-9894
▁コメント	-9895
出来ました	-9896
プデ	-9897
再生	-9898
関わ	-9899
とうに	-9900
着いて	-9901
凄かった	-9902
▁いつもの	-9903
帰ってきたら	-9904
Jo	-9905
Lv	-9906
▁当た	-9907
しゃれ	-9908
で見て	-9909
トマト	-9910
auto	-9911
▁モンハ	-9912
フォロワーさんの中に	-9913
憂鬱	-9914
憧れ	-9915
▁ほぼ	-9916
▁サイ	-9917
をした	-9918
覚えてる	-9919
目が覚めた	-9920
すぎてやばい	-9921
av	-9922
コの	-9923
ボス	-9924
候補	-9925
ray	-9926
▁やり	-9927
パーク	-9928
負ける	-9929
有り難う	-9930
がんばろー	-9931
お気をつけて	-9932
OU	-9933
フォン	-9934
アピール	-9935
⸝⸝	-9936
につ	-9937
信用	-9938
▁ハマる	-9939
ジャンプ	-9940
混んでる	-9941
-0000	-9942
ございまーす	-9943
頂きありがとうございます	-9944
てー	-9945
操作	-9946
▁さや	-9947
そうか	-9948
感じて	-9949
時起き	-9950
▁おなか	-9951
おかげで	-9952
れんかった	-9953
ゆっくり休んでね	-9954
んぼ	-9955
タリ	-9956
ビア	-9957
否定	-9958
慣れ	-9959
若干	-9960
道の	-9961
あんた	-9962
えもん	-9963
じゃねえ	-9964
TM	-9965
▁血	-9966
みと	-9967
ヒヤ	-9968
娘が	-9969
投手	-9970
aoi	-9971
͟͟͞	-9972
ンプル	-9973
けばよかった	-9974
になってから	-9975
しは	-9976
中継	-9977
教習	-9978
洗い	-9979
男の	-9980
立派	-9981
鑑賞	-9982
▁25	-9983
だよな	-9984
まぢで	-9985
▁ドキドキ	-9986
ひら	-9987
崩壊	-9988
年は	-9989
jjk	-9990
っつり	-9991
むっちゃ	-9992
買ったら	-9993
奴は	-9994
委員	-9995
工事	-9996
度は	-9997
日中	-9998
▁一生	-9999
やけん	-10000
超えて	-10001
emon	-10002
▁ダンス	-10003
していく	-10004
んだろうね	-10005
5%	-10006
ガル	-10007
バキ	-10008
技術	-10009
▁花粉症	-10010
いいです	-10011
言わない	-10012
shima	-10013
気を付けてね	-10014
くっ	-10015
シカ	-10016
ビュ	-10017
抹茶	-10018
play	-10019
ダメージ	-10020
マイナス	-10021
▁ざ	-10022
▁五	-10023
▁未	-10024
が強	-10025
の数	-10026
ume	-10027
▁課題	-10028
バーグ	-10029
外から	-10030
2016	-10031
AY	-10032
▁藤	-10033
に残	-10034
能力	-10035
そちら	-10036
相手に	-10037
初めて見た	-10038
帰ってくる	-10039
ان	-10040
▁森	-10041
ねこ	-10042
勿論	-10043
sha	-10044
がまだ	-10045
くしゃ	-10046
なしで	-10047
引っ張	-10048
dm	-10049
ミリ	-10050
による	-10051
ワイン	-10052
上から	-10053
言い方	-10054
▁おいおい	-10055
なかったよ	-10056
混ぜ	-10057
脂肪	-10058
貯金	-10059
▁して	-10060
▁みゆ	-10061
▁年末	-10062
おいて	-10063
くなら	-10064
できず	-10065
ーーい	-10066
って思ってた	-10067
▁彩	-10068
まさ	-10069
わっ	-10070
▁途中	-10071
がめっちゃ	-10072
決まってる	-10073
▁h	-10074
人か	-10075
当然	-10076
役に	-10077
どうせ	-10078
回って	-10079
富士山	-10080
これじゃ	-10081
ドラゴン	-10082
話しかけ	-10083
チャンネル	-10084
GT	-10085
神起	-10086
呼べば	-10087
バースデー	-10088
もしかしたら	-10089
インフルエンザ	-10090
行ってらっしゃい	-10091
:;	-10092
DX	-10093
GM	-10094
▁ー	-10095
ロケ	-10096
これを	-10097
いったら	-10098
の皆さん	-10099
よければ	-10100
Peing	-10101
買ってきて	-10102
ありますよね	-10103
、6	-10104
セイ	-10105
uno	-10106
すぎるよ	-10107
キスマイ	-10108
入ってない	-10109
▁モンハーに	-10110
aaaaaajjk	-10111
▁モンハーに似すぎて	-10112
▁南	-10113
例の	-10114
破壊	-10115
OFF	-10116
life	-10117
(・_・)	-10118
ooooo	-10119
のだ	-10120
をと	-10121
ウケ	-10122
▁過去	-10123
しとく	-10124
と違う	-10125
の子供	-10126
切れた	-10127
▁だれか	-10128
▁なんも	-10129
のですね	-10130
おもしろい	-10131
><	-10132
▁22	-10133
▁きた	-10134
に期待	-10135
去年の	-10136
姉さん	-10137
真っ赤	-10138
rock	-10139
のんびり	-10140
わたしが	-10141
バランス	-10142
いつもより	-10143
点数	-10144
ゴルフ	-10145
会おうね	-10146
行ってた	-10147
すごかった	-10148
〜〜〜〜〜〜	-10149
▁犬	-10150
のこ	-10151
帰ろう	-10152
kira	-10153
▁ビックリ	-10154
になってます	-10155
子園	-10156
陰で	-10157
どこで	-10158
は無い	-10159
るんだ	-10160
身体が	-10161
time	-10162
それにしても	-10163
▁めちゃめちゃ	-10164
Di	-10165
Mr	-10166
bk	-10167
▁˃	-10168
▁紅	-10169
あか	-10170
うと	-10171
▁お酒	-10172
▁まっ	-10173
エラー	-10174
甲子園	-10175
hime	-10176
▁うわっ	-10177
たまには	-10178
はもっと	-10179
▁わかった	-10180
LY	-10181
df	-10182
ペラ	-10183
初め	-10184
敬語	-10185
車が	-10186
830	-10187
ute	-10188
わちゃ	-10189
マナー	-10190
airi	-10191
嬉しいな	-10192
▁がんばれ	-10193
▁まったく	-10194
聞いてない	-10195
ls	-10196
ご一緒	-10197
ルール	-10198
出てた	-10199
Japan	-10200
じゃないです	-10201
▁子	-10202
DAY	-10203
方神起	-10204
chun	-10205
こないだ	-10206
ただいま	-10207
だったんだね	-10208
HY	-10209
KK	-10210
yr	-10211
うに	-10212
次元	-10213
独り	-10214
^;)	-10215
▁ひどい	-10216
されている	-10217
▁Happy	-10218
も見	-10219
ーイ	-10220
以下	-10221
黒い	-10222
312	-10223
zzz	-10224
▁何回	-10225
美容院	-10226
なにより	-10227
会えるの	-10228
つよ	-10229
ケア	-10230
信号	-10231
広告	-10232
▁よー	-10233
天気が	-10234
映画館	-10235
ってマジ	-10236
_____	-10237
いつの間にか	-10238
味わ	-10239
hir	-10240
らった	-10241
ダイヤ	-10242
以上の	-10243
GR	-10244
〇〇	-10245
寝たら	-10246
////	-10247
ビジネス	-10248
はちょっと	-10249
▁良かったら	-10250
?:	-10251
AV	-10252
ォォ	-10253
学園	-10254
表紙	-10255
ING	-10256
fan	-10257
web	-10258
▁ゆり	-10259
▁コラ	-10260
かかり	-10261
んやな	-10262
ッタリ	-10263
思うけど	-10264
music	-10265
できてない	-10266
食べれない	-10267
やめてください	-10268
▁♪	-10269
バチ	-10270
ヒリ	-10271
指導	-10272
者に	-10273
通販	-10274
AAA	-10275
yam	-10276
▁連絡	-10277
だと思	-10278
のいい	-10279
勝って	-10280
yuzu	-10281
メッチャ	-10282
ってくれてありがとう	-10283
じぇ	-10284
済み	-10285
きさん	-10286
▁いくら	-10287
やってて	-10288
じょ	-10289
すれ	-10290
の皆	-10291
ボチ	-10292
??(	-10293
▁そら	-10294
▁家の	-10295
ウォー	-10296
良かったよ	-10297
そうなんですね	-10298
(〃	-10299
まな	-10300
▁取り	-10301
帰りの	-10302
懐かし	-10303
koko	-10304
スタジオ	-10305
申します	-10306
いっぱいで	-10307
なかったし	-10308
▁テンション	-10309
っちゃいます	-10310
梅雨	-10311
突破	-10312
舐め	-10313
証拠	-10314
▁充電	-10315
んなぁ	-10316
PI	-10317
並ぶ	-10318
名義	-10319
外出	-10320
鼻血	-10321
ona	-10322
ore	-10323
▁23	-10324
の方々	-10325
仕事を	-10326
遊んだ	-10327
▁そうか	-10328
可愛いし	-10329
ジャニーズ	-10330
も出	-10331
御飯	-10332
病み	-10333
金額	-10334
pre	-10335
お早う	-10336
チンコ	-10337
いるけど	-10338
リベンジ	-10339
体調不良	-10340
落とした	-10341
▁うれしい	-10342
でもいいから	-10343
▁塾	-10344
おく	-10345
子と	-10346
888	-10347
▁さと	-10348
欲しいな	-10349
してみます	-10350
忙しかった	-10351
▁YouTube	-10352
▁恋	-10353
書類	-10354
▁学生	-10355
▁毎年	-10356
自分でも	-10357
の間	-10358
切る	-10359
電源	-10360
寒くて	-10361
明るく	-10362
様です	-10363
こちらは	-10364
よろしい	-10365
3.	-10366
俳優	-10367
働き	-10368
親に	-10369
▁笑顔	-10370
かして	-10371
今夜は	-10372
痛かった	-10373
買いたい	-10374
やめてほしい	-10375
くなっちゃった	-10376
私と	-10377
kus	-10378
そこで	-10379
ツライ	-10380
大学生	-10381
にあった	-10382
終わりに	-10383
話しかけて	-10384
いいですよね	-10385
▁両	-10386
ーキ	-10387
中居	-10388
展示	-10389
ala	-10390
kii	-10391
sol	-10392
▁フル	-10393
兄さん	-10394
cham	-10395
かどうか	-10396
だろうね	-10397
だけなのに	-10398
arashi	-10399
inn	-10400
ああああああ	-10401
で告白してくれたら	-10402
▁裏	-10403
せんと	-10404
1997	-10405
来てくれた	-10406
イジ	-10407
gre	-10408
レンズ	-10409
できれば	-10410
遅くまで	-10411
本当にありがとうございます	-10412
3_	-10413
DH	-10414
DY	-10415
ポカ	-10416
競馬	-10417
CAS	-10418
▁遠い	-10419
またい	-10420
シール	-10421
リーの	-10422
何だか	-10423
元気な	-10424
先生が	-10425
apps	-10426
さなきゃ	-10427
まちゃん	-10428
がんばろう	-10429
gc	-10430
ぎゅ	-10431
ふぉ	-10432
デジ	-10433
人数	-10434
全体	-10435
料金	-10436
点滴	-10437
aro	-10438
end	-10439
▁my	-10440
だなあ	-10441
フィー	-10442
聞こえて	-10443
行けたら	-10444
もあるけど	-10445
SG	-10446
。「	-10447
ぱい	-10448
全開	-10449
改善	-10450
▁ラン	-10451
haya	-10452
〜〜!!	-10453
を感じる	-10454
安心して	-10455
届きました	-10456
qa	-10457
▁はや	-10458
▁みー	-10459
えっち	-10460
ったね	-10461
少しは	-10462
simp	-10463
も可愛い	-10464
匿名質問	-10465
toshi	-10466
になったよ	-10467
▁そうなんですよ	-10468
▁フォローしました	-10469
AC	-10470
PY	-10471
tp	-10472
さく	-10473
写真は	-10474
部屋の	-10475
▁それを	-10476
ですけどね	-10477
Bu	-10478
js	-10479
zx	-10480
がや	-10481
市民	-10482
本格	-10483
様は	-10484
ユニバ	-10485
くないよ	-10486
PE	-10487
_•	-10488
シコ	-10489
群馬	-10490
腸炎	-10491
集団	-10492
▁来月	-10493
▁りょう	-10494
まらない	-10495
打ち上げ	-10496
chika	-10497
気をつけます	-10498
MN	-10499
▁片	-10500
しゃー	-10501
たくて	-10502
パスタ	-10503
答えて	-10504
▁アップ	-10505
するなら	-10506
つもりが	-10507
▁ちょうど	-10508
してないのに	-10509
On	-10510
だあ	-10511
でか	-10512
ほら	-10513
所の	-10514
稼ぎ	-10515
117	-10516
▁))	-10517
▁授業	-10518
▁風呂	-10519
ゴリラ	-10520
リプ返	-10521
後から	-10522
▁ずるい	-10523
あるのか	-10524
もあって	-10525
SJ	-10526
ごい	-10527
回数	-10528
春休み	-10529
行くん	-10530
▁メール	-10531
まとめて	-10532
に行きました	-10533
ゆず	-10534
分は	-10535
女の	-10536
︎︎	-10537
529	-10538
一ヶ月	-10539
▁さくら	-10540
いいこと	-10541
さちゃん	-10542
逢いたい	-10543
覚えてない	-10544
mx	-10545
治る	-10546
連勝	-10547
怪しい	-10548
行けた	-10549
▁ヤバい	-10550
ハグ	-10551
昼寝	-10552
演出	-10553
−_−	-10554
きもち	-10555
だよぉ	-10556
の時期	-10557
やかに	-10558
無駄に	-10559
言葉に	-10560
していて	-10561
ついでに	-10562
バイバイ	-10563
気付いた	-10564
kp	-10565
死亡	-10566
甲斐	-10567
▁もお	-10568
コイン	-10569
スキル	-10570
本当は	-10571
▁明後日	-10572
してみた	-10573
のおかげ	-10574
んかった	-10575
タイトル	-10576
日でした	-10577
行く予定	-10578
んだよなぁ	-10579
stagram	-10580
ef	-10581
さな	-10582
セレ	-10583
守る	-10584
褒美	-10585
青春	-10586
313	-10587
▁シン	-10588
▁数学	-10589
フィル	-10590
kino	-10591
▁まさに	-10592
▁去年の	-10593
▁Good	-10594
ストーカー	-10595
ツム	-10596
場面	-10597
頃は	-10598
のかよ	-10599
らずに	-10600
知り合	-10601
飼い主	-10602
AE	-10603
お手	-10604
再開	-10605
皮膚	-10606
apa	-10607
いいか	-10608
へんの	-10609
ティア	-10610
1126	-10611
されてて	-10612
みんなと	-10613
michi	-10614
だからって	-10615
ないからね	-10616
▁がんばって	-10617
ってないけど	-10618
さんこんばんは	-10619
ぶつ	-10620
気合	-10621
▁もぅ	-10622
▁前髪	-10623
お返事	-10624
なにか	-10625
の勉強	-10626
あるんだ	-10627
ことを祈	-10628
届かない	-10629
(ˊ	-10630
▁乗	-10631
だち	-10632
▁健康	-10633
ベート	-10634
貰える	-10635
100%	-10636
jump	-10637
下手くそ	-10638
治らない	-10639
▁ところで	-10640
ナツ	-10641
ポロ	-10642
並び	-10643
単独	-10644
/15	-10645
▁クリ	-10646
▁ディ	-10647
▁会場	-10648
この人	-10649
するぞ	-10650
っそく	-10651
エンド	-10652
sama	-10653
▁なのに	-10654
▁アイス	-10655
▁面白い	-10656
じめ	-10657
すり	-10658
機械	-10659
雪が	-10660
▁タイ	-10661
止まり	-10662
食って	-10663
られるの	-10664
▁あーーー	-10665
いたします	-10666
jh	-10667
▁休	-10668
作戦	-10669
苦笑	-10670
umi	-10671
▁ツアー	-10672
頑張ってくださいね	-10673
▁汗	-10674
ぜー	-10675
▁思い	-10676
▁誰も	-10677
すんの	-10678
せいか	-10679
ますぎ	-10680
下ネタ	-10681
▁はぁー	-10682
乗り換え	-10683
0.	-10684
千円	-10685
行か	-10686
込ま	-10687
Jun	-10688
お土産	-10689
二度と	-10690
見知り	-10691
2013	-10692
に会いた	-10693
ation	-10694
▁たまには	-10695
っちゃダメ	-10696
▁今日もよろしくね	-10697
▁頑張ってください	-10698
方面	-10699
胸が	-10700
oru	-10701
▁まぢで	-10702
きたから	-10703
cx	-10704
▁ぺ	-10705
。”	-10706
ふつ	-10707
性の	-10708
▁CD	-10709
ぐるみ	-10710
にお金	-10711
インタ	-10712
頃から	-10713
どうする	-10714
会ったら	-10715
引っ越し	-10716
緊張する	-10717
ありますが	-10718
クオリティ	-10719
dl	-10720
||	-10721
知識	-10722
▁我慢	-10723
▁運転	-10724
うんこ	-10725
kumi	-10726
できるの	-10727
メンヘラ	-10728
忘れずに	-10729
気にして	-10730
のサ	-10731
経過	-10732
365	-10733
ちがう	-10734
余裕で	-10735
唐揚げ	-10736
▁からの	-10737
▁カメラ	-10738
残念ながら	-10739
▁よろしくね	-10740
ごは	-10741
生徒	-10742
親が	-10743
選ば	-10744
▁of	-10745
▁キモ	-10746
ちょく	-10747
ange	-10748
きたけど	-10749
だからな	-10750
ーーーい	-10751
空いてる	-10752
全力	-10753
思考	-10754
読め	-10755
足を	-10756
銀行	-10757
The	-10758
▁基本	-10759
▁調子	-10760
のにね	-10761
本間に	-10762
/837	-10763
mini	-10764
またまた	-10765
!!!!!!!!!	-10766
他に	-10767
子も	-10768
▁なつ	-10769
っけー	-10770
メイド	-10771
back	-10772
mako	-10773
にしたい	-10774
kitty	-10775
▁というか	-10776
ございません	-10777
▁誕生日おめでとう	-10778
yz	-10779
▁~	-10780
ピュ	-10781
主人	-10782
交流	-10783
▁花粉	-10784
どこに	-10785
に来る	-10786
るとか	-10787
で買った	-10788
シングル	-10789
飲んだら	-10790
irthday	-10791
やってください	-10792
?←	-10793
TK	-10794
たわ	-10795
先が	-10796
喜ぶ	-10797
茨城	-10798
資格	-10799
red	-10800
地味に	-10801
すぎです	-10802
また明日	-10803
ありますね	-10804
kenken	-10805
▁羽	-10806
ギョ	-10807
が出た	-10808
たんの	-10809
寝れる	-10810
sumi	-10811
▁難しい	-10812
のほうが	-10813
が止まらない	-10814
オハ	-10815
持た	-10816
126	-10817
555	-10818
▁だね	-10819
ニョン	-10820
マイチ	-10821
終わらせ	-10822
みたいだから	-10823
DQ	-10824
ソク	-10825
会は	-10826
垢で	-10827
支え	-10828
自民	-10829
/14	-10830
の日は	-10831
ライフ	-10832
あっても	-10833
▁とうとう	-10834
なんとなく	-10835
大変だった	-10836
لي	-10837
▁肩	-10838
で観	-10839
が来た	-10840
のって	-10841
気付いて	-10842
Tweet	-10843
寂しかった	-10844
nr	-10845
▁少	-10846
を通	-10847
キメ	-10848
似た	-10849
悪く	-10850
舞い	-10851
コント	-10852
れちゃった	-10853
プレミアム	-10854
せえ	-10855
洒落	-10856
いつい	-10857
の前で	-10858
eblo	-10859
そうだった	-10860
可愛いから	-10861
るといいですね	-10862
TU	-10863
Ze	-10864
̫͡	-10865
ぐら	-10866
は無	-10867
広い	-10868
郵便	-10869
っしー	-10870
ほちゃん	-10871
ファッション	-10872
Ja	-10873
XQ	-10874
居て	-10875
登校	-10876
かりん	-10877
っちー	-10878
んんん	-10879
pics	-10880
があると	-10881
って言い	-10882
恥ずかし	-10883
と思いますよ	-10884
上映	-10885
醤油	-10886
iss	-10887
久々の	-10888
kita	-10889
おっぱい	-10890
gw	-10891
変換	-10892
▁つか	-10893
も良い	-10894
事ない	-10895
いいなー	-10896
いでしょ	-10897
しまして	-10898
ありますか	-10899
みたいだけど	-10900
▁咳	-10901
救急	-10902
his	-10903
use	-10904
スタン	-10905
そのうち	-10906
どーしよ	-10907
生まれて	-10908
で良かった	-10909
▁定	-10910
ふく	-10911
▁大事	-10912
ヒット	-10913
素晴ら	-10914
んじゃん	-10915
応援します	-10916
▁宜しくお願いします	-10917
kc	-10918
タマ	-10919
親子	-10920
馴染	-10921
700	-10922
けどな	-10923
の問題	-10924
乗り越	-10925
借りて	-10926
大きく	-10927
多かった	-10928
ature	-10929
おと	-10930
ほどの	-10931
今朝は	-10932
更かし	-10933
途半端	-10934
たしかに	-10935
▁この時期	-10936
アドバイス	-10937
JE	-10938
ひー	-10939
ベタ	-10940
超絶	-10941
お金が	-10942
温かい	-10943
降りて	-10944
いっつも	-10945
レンタル	-10946
フレッシュ	-10947
でございます	-10948
▁わかりました	-10949
gx	-10950
ヨシ	-10951
伝説	-10952
見るの	-10953
zaki	-10954
ひさ	-10955
充分	-10956
入場	-10957
山口	-10958
128	-10959
≦*)	-10960
▁be	-10961
▁┓┓	-10962
▁ゆる	-10963
そこは	-10964
向いて	-10965
壊れて	-10966
▁いやぁ	-10967
▁┓┓┓┓	-10968
▁わたしの	-10969
ameblo	-10970
▁付き合える	-10971
▁あげたいお菓子	-10972
jn	-10973
▁うぅ	-10974
▁笑笑	-10975
ガラス	-10976
ってのが	-10977
セクシー	-10978
方が良い	-10979
ありすぎて	-10980
AB	-10981
わな	-10982
エビ	-10983
スン	-10984
▁お客	-10985
そうね	-10986
来てる	-10987
身事故	-10988
▁ホーム	-10989
行ったけど	-10990
acebook	-10991
ix	-10992
コウ	-10993
ッズ	-10994
寝れ	-10995
萎え	-10996
▁おや	-10997
▁のん	-10998
はじめ	-10999
デカイ	-11000
新しく	-11001
▁めんど	-11002
style	-11003
の出	-11004
ろや	-11005
聴け	-11006
_19	-11007
▁チョ	-11008
▁バン	-11009
おった	-11010
っとか	-11011
ージュ	-11012
上げる	-11013
手作り	-11014
▁がーん	-11015
▁自転車	-11016
お腹痛い	-11017
目指して	-11018
ご飯食べて	-11019
あっという間に	-11020
=20191205	-11021
!”	-11022
せば	-11023
なじ	-11024
ヘア	-11025
延長	-11026
新鮮	-11027
JSB	-11028
した人	-11029
ですよねー	-11030
してないから	-11031
▁びっくりした	-11032
お疲れさまです	-11033
本当にありがとうございました	-11034
fx	-11035
ik	-11036
ラグ	-11037
対戦	-11038
ick	-11039
▁全て	-11040
▁舞台	-11041
らんと	-11042
▁パソコン	-11043
みたいな感じ	-11044
早く会いたい	-11045
lt	-11046
▁l	-11047
停止	-11048
絵を	-11049
/47	-11050
部屋に	-11051
aaaaa	-11052
知らんけど	-11053
/12024	-11054
▁たくさんの	-11055
mb	-11056
みは	-11057
ッジ	-11058
pub	-11059
und	-11060
woo	-11061
わいい	-11062
タウン	-11063
仕事は	-11064
モヤモヤ	-11065
▁頑張ってね	-11066
Ft	-11067
Kn	-11068
▁ゼ	-11069
らら	-11070
何時	-11071
模試	-11072
睡魔	-11073
ポスト	-11074
▁しょう	-11075
こっちも	-11076
に入った	-11077
知りたい	-11078
▁こちらも	-11079
ハイタッチ	-11080
来てください	-11081
▁お疲れさまです	-11082
さあ	-11083
イマ	-11084
BAN	-11085
hot	-11086
ままで	-11087
揺れた	-11088
言い訳	-11089
▁流石に	-11090
しそうな	-11091
ティッシュ	-11092
(#^.^#)	-11093
cv	-11094
か迷	-11095
念願	-11096
emo	-11097
mot	-11098
にハマ	-11099
受ける	-11100
きれない	-11101
マスター	-11102
HT	-11103
わね	-11104
ちゃま	-11105
ックの	-11106
unes	-11107
ってから	-11108
apple	-11109
ってくるの	-11110
気に入りの	-11111
▁飯	-11112
うちら	-11113
安定の	-11114
精一杯	-11115
買えた	-11116
HIRO	-11117
suki	-11118
真面目に	-11119
*・	-11120
折り	-11121
理想	-11122
確実	-11123
顔を	-11124
▁先日	-11125
▁配信	-11126
いさん	-11127
やーん	-11128
ment	-11129
宜しくね	-11130
、『	-11131
めっ	-11132
poo	-11133
▁長い	-11134
こ焼き	-11135
わりと	-11136
ジナル	-11137
直して	-11138
mame	-11139
されるの	-11140
んだなぁ	-11141
いなかった	-11142
ツイートを	-11143
出来なくて	-11144
KP	-11145
マロ	-11146
ラの	-11147
▁Ya	-11148
ッパー	-11149
立った	-11150
聞くと	-11151
▁どちら	-11152
......?	-11153
AD	-11154
gj	-11155
yh	-11156
むし	-11157
中華	-11158
曲も	-11159
長野	-11160
▁何を	-11161
▁残り	-11162
いじめ	-11163
こと言	-11164
グラム	-11165
▁帰ったら	-11166
って思ってる	-11167
-2	-11168
積み	-11169
よね笑	-11170
/110	-11171
tana	-11172
カロリー	-11173
ライブで	-11174
ぁぁぁぁぁ	-11175
いましたが	-11176
ってないよ	-11177
行きたいな	-11178
▁ありがとね	-11179
タレ	-11180
関連	-11181
▁今後	-11182
▁通知	-11183
を取り	-11184
言うな	-11185
がやばい	-11186
したのは	-11187
全然違う	-11188
fr	-11189
昭和	-11190
秋楽	-11191
tiv	-11192
▁かわ	-11193
▁大切	-11194
▁爆笑	-11195
▁どうか	-11196
▁どうせ	-11197
ぽよ	-11198
もぅ	-11199
曲を	-11200
bas	-11201
ブラブ	-11202
写真が	-11203
分けて	-11204
水着	-11205
突入	-11206
▁th	-11207
テーマ	-11208
酔っ払	-11209
anal	-11210
おかえり	-11211
なんやろ	-11212
飲んでる	-11213
ND	-11214
介護	-11215
体操	-11216
占い	-11217
127	-11218
を受け	-11219
haha	-11220
͟͟͞͞	-11221
▁頭痛い	-11222
ですかー	-11223
ナンバー	-11224
気持ちで	-11225
▁こないだ	-11226
しかいない	-11227
楽しみだね	-11228
楽しみにしてるね	-11229
)!	-11230
NN	-11231
対象	-11232
新作	-11233
荒野	-11234
rio	-11235
色々な	-11236
つけたら	-11237
にしたら	-11238
かと思ったら	-11239
̩̩	-11240
▁夕	-11241
周回	-11242
断念	-11243
覚醒	-11244
▁ふぉ	-11245
▁馬鹿	-11246
気がして	-11247
▁スーパー	-11248
思ったより	-11249
ないのですが	-11250
OD	-11251
jb	-11252
kb	-11253
spe	-11254
▁さあ	-11255
▁若い	-11256
セール	-11257
決める	-11258
的にも	-11259
info	-11260
uv	-11261
▁七	-11262
オブ	-11263
▁ma	-11264
▁遊び	-11265
ヨーグル	-11266
行かないと	-11267
らっしゃーい	-11268
ダウンロード	-11269
▁遅くなりました	-11270
の後	-11271
もふ	-11272
やさ	-11273
場に	-11274
声優	-11275
夜に	-11276
漬け	-11277
(^◇	-11278
▁たか	-11279
▁めぐ	-11280
▁負け	-11281
ご挨拶	-11282
どうな	-11283
はいつ	-11284
サンド	-11285
吐いた	-11286
riya	-11287
いいのか	-11288
されると	-11289
見たこと	-11290
▁お腹痛い	-11291
リクエスト	-11292
▁このアプリ	-11293
IR	-11294
xn	-11295
▁週	-11296
あつ	-11297
ホイ	-11298
が心配	-11299
ガーン	-11300
コーン	-11301
パンク	-11302
▁あああ	-11303
md	-11304
悪魔	-11305
好きなの	-11306
▁今日も宜しくお願いします	-11307
9/	-11308
SL	-11309
ミラ	-11310
捕ま	-11311
用に	-11312
貯め	-11313
▁もはや	-11314
▁┓┓┓┓┓	-11315
まて	-11316
りこ	-11317
丁度	-11318
対面	-11319
hin	-11320
言葉が	-11321
yuna	-11322
MM	-11323
▁玉	-11324
うた	-11325
めぇ	-11326
オバ	-11327
仮面	-11328
216	-11329
ICE	-11330
▁不安	-11331
▁美容	-11332
まくる	-11333
ニャン	-11334
眠たい	-11335
美味い	-11336
なんじゃ	-11337
にしてね	-11338
～...	-11339
致しました	-11340
気づかなかった	-11341
gp	-11342
ウソ	-11343
着く	-11344
exo	-11345
▁千葉	-11346
1208	-11347
ついてない	-11348
ハロウィン	-11349
大変ですね	-11350
機会があれば	-11351
行ってみたい	-11352
%3	-11353
;:	-11354
JF	-11355
xw	-11356
ナウ	-11357
▁土日	-11358
▁音楽	-11359
じゅん	-11360
なると	-11361
フード	-11362
ベリー	-11363
打って	-11364
最初の	-11365
過ごす	-11366
選んで	-11367
のちゃん	-11368
▁なんだよ	-11369
▁ハッピー	-11370
▁リプありがとうございます	-11371
、8	-11372
ふん	-11373
昼間	-11374
焦る	-11375
pii	-11376
▁安定	-11377
でまた	-11378
_`∩)	-11379
インスト	-11380
3%82%	-11381
いいんだけど	-11382
とろ	-11383
は見	-11384
ベー	-11385
根性	-11386
▁)(	-11387
激おこ	-11388
好きな人	-11389
残ってる	-11390
なくなっちゃう	-11391
なくなりました	-11392
こよ	-11393
共演	-11394
満開	-11395
頃に	-11396
211	-11397
田くん	-11398
ぜひぜひ	-11399
とはいえ	-11400
フワフワ	-11401
レーション	-11402
▁公	-11403
▁誘	-11404
キョ	-11405
危機	-11406
投資	-11407
要素	-11408
語彙	-11409
ble	-11410
でやる	-11411
必死に	-11412
怒られ	-11413
感じた	-11414
最初は	-11415
くれると	-11416
に会った	-11417
るちゃん	-11418
癒されて	-11419
▁どうして	-11420
くなりたい	-11421
必須	-11422
狭い	-11423
シーの	-11424
外れた	-11425
昨日も	-11426
ストップ	-11427
バッチリ	-11428
らないから	-11429
▁酒	-11430
でこ	-11431
007	-11432
▁雨降	-11433
▁どうぞ	-11434
いちばん	-11435
してんの	-11436
ところが	-11437
ッキング	-11438
れてるから	-11439
▁┓┓┓┓┓┃	-11440
いつもありがとう	-11441
DR	-11442
lf	-11443
ばら	-11444
▁仙台	-11445
出そう	-11446
生放送	-11447
細かい	-11448
room	-11449
のかなぁ	-11450
もらえて	-11451
してますね	-11452
になりそうです	-11453
くださってありがとうございます	-11454
PG	-11455
▁父	-11456
▁絶	-11457
の高	-11458
急遽	-11459
224	-11460
▁いく	-11461
るって	-11462
▁いいよ	-11463
できてる	-11464
待ってるよ	-11465
無理しないで	-11466
!』	-11467
ʬʬ	-11468
エグ	-11469
味が	-11470
歌い	-11471
105	-11472
iwa	-11473
▁わあ	-11474
▁わわ	-11475
含めて	-11476
かなって	-11477
するのか	-11478
わかんな	-11479
appli	-11480
▁お母さん	-11481
▁ここまで	-11482
▁今日も素敵な	-11483
IE	-11484
Qu	-11485
SK	-11486
cz	-11487
of	-11488
チア	-11489
チク	-11490
尚更	-11491
▁神戸	-11492
どこか	-11493
フラー	-11494
リズム	-11495
真面目	-11496
誰でも	-11497
すぎるから	-11498
言いながら	-11499
すごいですね	-11500
JC	-11501
rp	-11502
寄せ	-11503
座席	-11504
願う	-11505
131	-11506
▁フェ	-11507
し過ぎ	-11508
りさん	-11509
ッチン	-11510
1182	-11511
はこちら	-11512
ヨーグルト	-11513
▁○	-11514
▁運	-11515
ぽい	-11516
最前	-11517
法第	-11518
▁あき	-11519
もして	-11520
ギャグ	-11521
マンの	-11522
fuku	-11523
▁できる	-11524
とかある	-11525
キレそう	-11526
違います	-11527
なんですかね	-11528
頑張りましょ	-11529
▁ありがとうね	-11530
頑張りましょうね	-11531
▁っ	-11532
でな	-11533
マズ	-11534
取引	-11535
快適	-11536
fam	-11537
▁中国	-11538
あっち	-11539
ぢゃん	-11540
もんで	-11541
が入って	-11542
なっしー	-11543
ホンマに	-11544
ありますよ	-11545
やねんけど	-11546
MX	-11547
上で	-11548
栃木	-11549
▁別に	-11550
▁平日	-11551
教科書	-11552
半身	-11553
継続	-11554
(`・	-11555
ババア	-11556
今回も	-11557
ants	-11558
になるよ	-11559
ペースで	-11560
入ってた	-11561
dance	-11562
Amazon	-11563
って思いました	-11564
GG	-11565
IQ	-11566
トウ	-11567
仕様	-11568
散々	-11569
番の	-11570
難い	-11571
。-;	-11572
んとこ	-11573
仕方が	-11574
そうそう	-11575
サークル	-11576
引きこも	-11577
Fl	-11578
ハピ	-11579
安静	-11580
雨で	-11581
318	-11582
SNS	-11583
▁̮̈	-11584
くわく	-11585
しくは	-11586
見たよ	-11587
▁どうも	-11588
いただけて	-11589
▁楽しみにして	-11590
FB	-11591
Hy	-11592
ぎゃ	-11593
ひゃ	-11594
ピザ	-11595
政府	-11596
空き	-11597
解禁	-11598
ven	-11599
▁ほら	-11600
▁凄く	-11601
▁最低	-11602
切れて	-11603
女子力	-11604
行かな	-11605
駅まで	-11606
28865	-11607
lockerz	-11608
遅くなりました	-11609
LK	-11610
再現	-11611
小説	-11612
惚れ	-11613
髪色	-11614
een	-11615
この頃	-11616
シック	-11617
分まで	-11618
頼んで	-11619
kyon	-11620
みそ	-11621
ペロ	-11622
同期	-11623
山の	-11624
遅延	-11625
▁寝坊	-11626
まんま	-11627
描いた	-11628
新元号	-11629
永遠に	-11630
許して	-11631
▁いっけ	-11632
のことは	-11633
んにちわ	-11634
メーカー	-11635
分かった	-11636
▁ふざけんな	-11637
JB	-11638
▁ザ	-11639
むの	-11640
期末	-11641
/13	-11642
ach	-11643
▁だい	-11644
▁アレ	-11645
ぃぃぃ	-11646
いこー	-11647
TAYA	-11648
miho	-11649
uuuu	-11650
ytic	-11651
からまた	-11652
それとも	-11653
してるんだけど	-11654
analytic	-11655
たに	-11656
むら	-11657
疑惑	-11658
ぶりに	-11659
ソウル	-11660
こちらも	-11661
られると	-11662
ッッッッ	-11663
聞いてる	-11664
亡くなった	-11665
って感じです	-11666
オリンピック	-11667
チョコレート	-11668
こぼ	-11669
寒さ	-11670
顔の	-11671
bir	-11672
▁体重	-11673
ルーム	-11674
なりそう	-11675
まったり	-11676
(⌒▽⌒)	-11677
▁お腹すいた	-11678
▁お久しぶりです	-11679
原発	-11680
坊主	-11681
iro	-11682
▁まさ	-11683
の結果	-11684
寄って	-11685
決まり	-11686
フォーム	-11687
▁すっごい	-11688
れないから	-11689
行ったこと	-11690
してもらって	-11691
東北	-11692
聴く	-11693
▁ひま	-11694
ですっ	-11695
の人も	-11696
乗った	-11697
疲れが	-11698
されます	-11699
ならまだ	-11700
どういうこと	-11701
▁逆	-11702
すい	-11703
のエ	-11704
講習	-11705
のほう	-11706
ブランド	-11707
(・∀・)	-11708
やってます	-11709
嬉しすぎて	-11710
▁今日も暑い	-11711
ED	-11712
sl	-11713
れが	-11714
貧血	-11715
can	-11716
いるよ	-11717
だねぇ	-11718
レッド	-11719
小学校	-11720
▁とりま	-11721
戻りたい	-11722
ってきたら	-11723
聞きました	-11724
▁Yahoo	-11725
年になりますように	-11726
*。	-11727
年を	-11728
級生	-11729
踊り	-11730
Cde	-11731
▁むり	-11732
▁よう	-11733
言える	-11734
025/	-11735
▁意外と	-11736
を見ると	-11737
rativ	-11738
行ってくる	-11739
意味わからん	-11740
さず	-11741
装備	-11742
道に	-11743
̣̣̥	-11744
▁夜は	-11745
か心配	-11746
イヤー	-11747
ビデオ	-11748
場合は	-11749
無理だ	-11750
トラウマ	-11751
れるように	-11752
でお願いします	-11753
kx	-11754
しこ	-11755
化け	-11756
容量	-11757
年後	-11758
/19	-11759
220	-11760
▁スク	-11761
回しか	-11762
笑笑笑	-11763
▁お菓子	-11764
れるから	-11765
▁サッカー	-11766
▁ダイエット	-11767
▁フォローさせていただきました	-11768
▁&	-11769
▁ر	-11770
▁奥	-11771
よさ	-11772
を探	-11773
ゴム	-11774
999	-11775
BBQ	-11776
meg	-11777
▁台風	-11778
キツい	-11779
付けた	-11780
笑える	-11781
▁お早う	-11782
くなるの	-11783
を使って	-11784
フィール	-11785
▁なんでも	-11786
感動しました	-11787
頑張って下さいね	-11788
6%	-11789
のあ	-11790
の定	-11791
ハロ	-11792
発狂	-11793
mix	-11794
▁ウォ	-11795
セント	-11796
人さん	-11797
意味が	-11798
風邪引	-11799
0125	-11800
▁for	-11801
いいなあ	-11802
スイッチ	-11803
▁いまから	-11804
▁なにそれ	-11805
IX	-11806
314	-11807
▁シュ	-11808
神奈川	-11809
▁楽しく	-11810
、、、。	-11811
乗ってる	-11812
カレンダー	-11813
▁このアプリ凄い	-11814
Uw	-11815
屋で	-11816
検定	-11817
業務	-11818
眉毛	-11819
選ぶ	-11820
igo	-11821
、、(	-11822
/747	-11823
スペース	-11824
恐るべし	-11825
▁みんなの	-11826
〜〜〜〜〜	-11827
お大事にね	-11828
るといいな	-11829
DC	-11830
Sv	-11831
▁鳥	-11832
支援	-11833
電池	-11834
▁on	-11835
▁あらま	-11836
だろうし	-11837
笑ってる	-11838
CdeLC	-11839
してもらった	-11840
/566412	-11841
くなりますように	-11842
118228865	-11843
118228865025/	-11844
................	-11845
BT	-11846
YM	-11847
前日	-11848
225	-11849
▁ひな	-11850
▁アホ	-11851
▁新宿	-11852
ハワイ	-11853
冷蔵庫	-11854
留守番	-11855
するんだ	-11856
そっくり	-11857
どこかで	-11858
今のところ	-11859
DK	-11860
みも	-11861
sto	-11862
に入れ	-11863
の人生	-11864
いるのか	-11865
えないと	-11866
つかって	-11867
トラブル	-11868
simplog	-11869
きを	-11870
差が	-11871
製品	-11872
身に	-11873
道を	-11874
遠慮	-11875
315	-11876
Ryo	-11877
let	-11878
▁一般	-11879
◎;)	-11880
がいた	-11881
ボトル	-11882
見た目	-11883
誰にも	-11884
gawa	-11885
itan	-11886
pyon	-11887
それだけ	-11888
考えてる	-11889
-000000	-11890
wwwwwwwww	-11891
きょ	-11892
元に	-11893
前回	-11894
外に	-11895
親の	-11896
迷子	-11897
lol	-11898
たちも	-11899
ちゃい	-11900
バッジ	-11901
2011	-11902
そうだし	-11903
目の前で	-11904
近づいて	-11905
かったのに	-11906
できるので	-11907
られません	-11908
待ち遠しい	-11909
▁マジですか	-11910
VO	-11911
VR	-11912
往復	-11913
意気	-11914
/56	-11915
106	-11916
▁女性	-11917
の上に	-11918
んにゃ	-11919
ヨナラ	-11920
心から	-11921
送った	-11922
▁その後	-11923
▁思い出	-11924
してる人	-11925
キャスト	-11926
おおおおお	-11927
インタビュー	-11928
▁仲良くしてください	-11929
フォローさせていただきました	-11930
NT	-11931
ウナ	-11932
大体	-11933
経済	-11934
車に	-11935
っぴー	-11936
ブック	-11937
来てた	-11938
寒いから	-11939
Dr	-11940
dn	-11941
▁兄	-11942
は今	-11943
批判	-11944
途端	-11945
▁クロ	-11946
きいて	-11947
使い方	-11948
来るの	-11949
自撮り	-11950
mimi	-11951
くなるから	-11952
Ca	-11953
He	-11954
モニ	-11955
予選	-11956
kyu	-11957
▁コレ	-11958
つなが	-11959
ズドラ	-11960
前まで	-11961
日にち	-11962
snow	-11963
かったー	-11964
4%	-11965
FX	-11966
あけ	-11967
けい	-11968
取れ	-11969
履歴	-11970
▁サイン	-11971
▁小学生	-11972
してみる	-11973
だったかな	-11974
db	-11975
おや	-11976
フフ	-11977
戦い	-11978
撮る	-11979
汗か	-11980
消化	-11981
▁にゃ	-11982
▁アー	-11983
っとく	-11984
ギャル	-11985
ハーフ	-11986
するって	-11987
となって	-11988
イマイチ	-11989
差し入れ	-11990
そんな感じ	-11991
▁姉	-11992
キタ	-11993
一切	-11994
単語	-11995
回し	-11996
HAW	-11997
php	-11998
▁朝の	-11999
インド	-12000
慌てて	-12001
聞けて	-12002
▁小さい	-12003
いってる	-12004
カラコン	-12005
書いてる	-12006
かもですね	-12007
▁あっという	-12008
日になりますように	-12009
BY	-12010
▁～	-12011
修正	-12012
閉じ	-12013
Blu	-12014
▁なー	-12015
▁次回	-12016
がいて	-12017
ならん	-12018
ウコン	-12019
本日も	-12020
kami	-12021
だんだん	-12022
サポート	-12023
動かない	-12024
▁フォロバしました	-12025
日和	-12026
無さ	-12027
!??	-12028
やたら	-12029
コーデ	-12030
抜いて	-12031
見えた	-12032
▁علي	-12033
がんばり	-12034
ミーティング	-12035
KT	-12036
の実	-12037
103	-12038
ldh	-12039
っさん	-12040
▁新幹線	-12041
フロント	-12042
ポジティブ	-12043
すみませんでした	-12044
▁これからもよろしくお願いします	-12045
dh	-12046
大分	-12047
辺り	-12048
218	-12049
415	-12050
らせる	-12051
合って	-12052
▁アニメ	-12053
バーガー	-12054
ちゃんから	-12055
終わったー	-12056
ek	-12057
jm	-12058
▁進	-12059
くろ	-12060
付近	-12061
元々	-12062
刺さ	-12063
出掛け	-12064
anan	-12065
soft	-12066
ありえん	-12067
してたよ	-12068
フィギュ	-12069
▁お大事にして	-12070
OT	-12071
、7	-12072
君も	-12073
eno	-12074
▁ミス	-12075
▁ラブ	-12076
▁死ぬ	-12077
よなぁ	-12078
んねー	-12079
▁聞いて	-12080
アアアア	-12081
ガッツリ	-12082
入ったら	-12083
▁えーーー	-12084
されてない	-12085
凄いですね	-12086
好きだけど	-12087
げた	-12088
の夢	-12089
ノシ	-12090
ユノ	-12091
提供	-12092
曲は	-12093
椅子	-12094
認識	-12095
駅の	-12096
▁バイ	-12097
たっぷり	-12098
やったわ	-12099
ティーン	-12100
tweet	-12101
あったかい	-12102
ちゃんのお	-12103
gb	-12104
pc	-12105
▁総	-12106
だく	-12107
▁流石	-12108
ラップ	-12109
開幕戦	-12110
cafe	-12111
▁お願い	-12112
▁分かる	-12113
いやいや	-12114
のかしら	-12115
やないか	-12116
使わない	-12117
時くらい	-12118
いつまでも	-12119
終わってる	-12120
しかったです	-12121
して下さいね	-12122
位の	-12123
年下	-12124
配布	-12125
風機	-12126
の友達	-12127
mail	-12128
インター	-12129
回くらい	-12130
大人しく	-12131
)♪	-12132
zw	-12133
ぴょ	-12134
ふる	-12135
雑魚	-12136
ともと	-12137
スキー	-12138
月まで	-12139
私だけ	-12140
はやめて	-12141
思いました	-12142
LM	-12143
▁ぅ	-12144
▁清	-12145
あほ	-12146
の裏	-12147
810	-12148
box	-12149
ese	-12150
▁ケン	-12151
ありえ	-12152
おんに	-12153
に入る	-12154
piyo	-12155
なるべく	-12156
ばっかで	-12157
elove	-12158
ということ	-12159
と言われた	-12160
行ってない	-12161
好きな人がいる	-12162
らも	-12163
オヤ	-12164
ハウ	-12165
冷静	-12166
堪能	-12167
素材	-12168
ミント	-12169
amin	-12170
▁にしても	-12171
らしいから	-12172
▁でもこれは	-12173
zn	-12174
☆♪	-12175
自覚	-12176
起動	-12177
apo	-12178
二人で	-12179
▁لها	-12180
HAWKS	-12181
間違いない	-12182
実はフォロワーさんの中に	-12183
Vo	-12184
▁店	-12185
お家	-12186
すよ	-12187
ンン	-12188
ヴェ	-12189
画質	-12190
見れ	-12191
BIG	-12192
iga	-12193
▁どん	-12194
▁パク	-12195
ゲナイ	-12196
ソング	-12197
ーいー	-12198
1999	-12199
を入れて	-12200
コンタクト	-12201
▁気を付けて	-12202
▁いやいやいや	-12203
コア	-12204
相性	-12205
設置	-12206
話は	-12207
nis	-12208
、、。	-12209
いい子	-12210
スゴい	-12211
バッテ	-12212
行くと	-12213
kann	-12214
ライダー	-12215
たまらない	-12216
うれしいです	-12217
んでしょうか	-12218
◎_	-12219
がー	-12220
ヒャ	-12221
打つ	-12222
数日	-12223
既読	-12224
リット	-12225
履いて	-12226
▁電車で	-12227
ティック	-12228
、、、、、	-12229
このままじゃ	-12230
jt	-12231
▁照	-12232
クセ	-12233
通じ	-12234
ホッと	-12235
リプライ	-12236
無いから	-12237
▁間違いない	-12238
ごく	-12239
昔の	-12240
熱が	-12241
129	-12242
▁ブラ	-12243
▁待ち	-12244
▁現実	-12245
ならい	-12246
交通費	-12247
多いし	-12248
瞬間に	-12249
▁あーあ	-12250
かったな	-12251
並んでる	-12252
▁そんな事	-12253
大好きだよ	-12254
行こうかな	-12255
お大事にして	-12256
なくなっちゃった	-12257
FP	-12258
rf	-12259
ふた	-12260
強化	-12261
順番	-12262
121	-12263
new	-12264
∠)_	-12265
▁そそ	-12266
▁どの	-12267
叫んで	-12268
yuko	-12269
▁これも	-12270
あったの	-12271
らしくて	-12272
プライベート	-12273
▁会いたかった	-12274
って思ってたら	-12275
オト	-12276
ワッ	-12277
何て	-12278
双子	-12279
送る	-12280
頼んだ	-12281
door	-12282
こんなの	-12283
まんない	-12284
▁そーなの	-12285
せっかくの	-12286
可愛くない	-12287
SC	-12288
離脱	-12289
176	-12290
▁رد	-12291
くんを	-12292
フィン	-12293
ペシャル	-12294
らしいけど	-12295
打ち合わせ	-12296
LP	-12297
ボク	-12298
ミマ	-12299
靴下	-12300
ike	-12301
───	-12302
こそこ	-12303
っぽど	-12304
どこも	-12305
動物園	-12306
待った	-12307
見に行く	-12308
ction	-12309
モンスター	-12310
4_	-12311
HW	-12312
ちい	-12313
何の	-12314
吹っ	-12315
sns	-12316
▁こん	-12317
で仕事	-12318
チュウ	-12319
扇風機	-12320
淋しい	-12321
▁ドラマ	-12322
当たらない	-12323
組み合わせ	-12324
dp	-12325
暖房	-12326
服装	-12327
ito	-12328
作ろう	-12329
顔文字	-12330
...←	-12331
▁あんなに	-12332
▁どっちも	-12333
行ったのに	-12334
▁そうなんや	-12335
xa	-12336
せな	-12337
ツル	-12338
口が	-12339
ant	-12340
ats	-12341
lav	-12342
▁土曜	-12343
▁隣の	-12344
時とか	-12345
着てる	-12346
usic	-12347
▁おまえ	-12348
▁ガチャ	-12349
のお仕事	-12350
▁そうなのか	-12351
あるんですね	-12352
KC	-12353
原宿	-12354
つでも	-12355
やがる	-12356
可愛く	-12357
2010	-12358
さっぱり	-12359
その前に	-12360
ようなら	-12361
パニック	-12362
ボックス	-12363
に行ってきました	-12364
Ar	-12365
GF	-12366
▁低	-12367
じわ	-12368
やや	-12369
スが	-12370
119	-12371
cle	-12372
▁生理	-12373
ご苦労	-12374
んだか	-12375
目覚め	-12376
yuta	-12377
▁ただの	-12378
出したら	-12379
▁ええええ	-12380
聴きながら	-12381
ではありません	-12382
EE	-12383
vH	-12384
▁引	-12385
じん	-12386
エッ	-12387
マツ	-12388
中央	-12389
(*'	-12390
▁ゆい	-12391
▁高い	-12392
たちに	-12393
は辛い	-12394
運動会	-12395
▁キャラ	-12396
ついたら	-12397
の中では	-12398
繰り返し	-12399
と思ってました	-12400
AW	-12401
▁涼	-12402
吾郎	-12403
肝心	-12404
見守	-12405
▁深夜	-12406
ズボン	-12407
ッカリ	-12408
テープ	-12409
言うの	-12410
miwa	-12411
moon	-12412
▁トプ画	-12413
しまーす	-12414
大事にな	-12415
ということで	-12416
BP	-12417
▁j	-12418
▁時	-12419
不快	-12420
人形	-12421
体を	-12422
内炎	-12423
ってよ	-12424
ワレコ	-12425
真ん中	-12426
ello	-12427
nori	-12428
plus	-12429
くださーい	-12430
-3	-12431
QR	-12432
dc	-12433
騒が	-12434
ナップ	-12435
受け取	-12436
届けて	-12437
辞めた	-12438
0408	-12439
▁NHK	-12440
にならん	-12441
目の前に	-12442
聞こえる	-12443
▁この時間	-12444
いたくない	-12445
xs	-12446
アジ	-12447
ルド	-12448
共通	-12449
▁ペン	-12450
くれよ	-12451
に会え	-12452
パンチ	-12453
当てて	-12454
wata	-12455
▁えーー	-12456
▁ふえぇ	-12457
▁本気で	-12458
しゃべり	-12459
ましたか	-12460
忙しそう	-12461
をありがとう	-12462
▁いつもありがとうございます	-12463
iz	-12464
▁又	-12465
おち	-12466
テク	-12467
果た	-12468
転換	-12469
345	-12470
BTS	-12471
pom	-12472
▁so	-12473
がらせ	-12474
さんや	-12475
その時	-12476
イルド	-12477
hite	-12478
いなくて	-12479
お願いし	-12480
▁いっけなーい	-12481
mikuriya	-12482
GN	-12483
qp	-12484
ペア	-12485
モコ	-12486
二つ	-12487
居た	-12488
施設	-12489
男は	-12490
迫力	-12491
115	-12492
may	-12493
ちゅう	-12494
年前の	-12495
(−_−	-12496
▁しょー	-12497
花火大会	-12498
来てくれて	-12499
ふり	-12500
(*`	-12501
222	-12502
生きる	-12503
▁ジャニ	-12504
▁ラジオ	-12505
うううう	-12506
から電話	-12507
きちんと	-12508
ステキな	-12509
楽しめる	-12510
食べれる	-12511
/2019	-12512
ウリ	-12513
ワシ	-12514
朝鮮	-12515
虐待	-12516
-10	-12517
ort	-12518
▁(@	-12519
▁一日	-12520
のよう	-12521
▁ライン	-12522
くれるの	-12523
ネットで	-12524
行きたいです	-12525
SD	-12526
Wa	-12527
fw	-12528
▁久	-12529
▁背	-12530
アッ	-12531
ウイ	-12532
成人	-12533
気配	-12534
009	-12535
▁すず	-12536
▁只今	-12537
ちそう	-12538
オーラ	-12539
時代の	-12540
朝まで	-12541
あと少し	-12542
二人とも	-12543
-8	-12544
yg	-12545
すげ	-12546
ケド	-12547
ツア	-12548
女優	-12549
謝罪	-12550
贈り	-12551
219	-12552
▁ヤバ	-12553
小さな	-12554
選手の	-12555
2014	-12556
Yuki	-12557
▁日本の	-12558
っていい	-12559
も楽しみ	-12560
◎_◎;)	-12561
分からないけど	-12562
:2	-12563
==	-12564
`;	-12565
▁市	-12566
レオ	-12567
佐藤	-12568
愛情	-12569
▁あそ	-12570
▁ウィ	-12571
ご連絡	-12572
ピンチ	-12573
真っ白	-12574
高くて	-12575
んだよー	-12576
▁起きたら	-12577
くださった	-12578
そうなので	-12579
Hu	-12580
KR	-12581
▁京	-12582
すま	-12583
顔も	-12584
▁..	-12585
▁鼻水	-12586
しかた	-12587
看護師	-12588
̴̶̷̥	-12589
▁早起き	-12590
年くらい	-12591
しましたよ	-12592
ってもらう	-12593
になりますね	-12594
気にしないで	-12595
一歩	-12596
快晴	-12597
107	-12598
▁エン	-12599
▁店長	-12600
この間	-12601
その時は	-12602
テーブル	-12603
らいました	-12604
はじめまして	-12605
イー	-12606
君に	-12607
特集	-12608
tto	-12609
▁ふふ	-12610
代わり	-12611
痩せる	-12612
isan	-12613
Xo	-12614
▁寂	-12615
カサ	-12616
主義	-12617
入試	-12618
出費	-12619
尽く	-12620
整形	-12621
選べ	-12622
sma	-12623
お写真	-12624
人でも	-12625
怒った	-12626
very	-12627
/1018	-12628
▁そこまで	-12629
▁	-12630
い	-12631
.	-12632
た	-12633
て	-12634
な	-12635
し	-12636
っ	-12637
ん	-12638
か	-12639
の	-12640
で	-12641
t	-12642
す	-12643
に	-12644
ま	-12645
と	-12646
ー	-12647
!	-12648
i	-12649
う	-12650
る	-12651
ら	-12652
も	-12653
、	-12654
a	-12655
o	-12656
が	-12657
は	-12658
く	-12659
り	-12660
れ	-12661
だ	-12662
e	-12663
よ	-12664
/	-12665
あ	-12666
c	-12667
m	-12668
お	-12669
ね	-12670
@	-12671
1	-12672
ち	-12673
さ	-12674
r	-12675
w	-12676
ン	-12677
n	-12678
s	-12679
き	-12680
こ	-12681
や	-12682
け	-12683
p	-12684
。	-12685
0	-12686
ゃ	-12687
日	-12688
(	-12689
)	-12690
そ	-12691
2	-12692
?	-12693
ど	-12694
u	-12695
_	-12696
h	-12697
わ	-12698
イ	-12699
み	-12700
え	-12701
k	-12702
ス	-12703
3	-12704
め	-12705
ト	-12706
今	-12707
を	-12708
〜	-12709
ご	-12710
ッ	-12711
y	-12712
つ	-12713
ろ	-12714
5	-12715
7	-12716
笑	-12717
ラ	-12718
4	-12719
8	-12720
l	-12721
6	-12722
9	-12723
じ	-12724
ル	-12725
リ	-12726
:	-12727
せ	-12728
ク	-12729
T	-12730
人	-12731
～	-12732
g	-12733
行	-12734
#	-12735
ば	-12736
気	-12737
大	-12738
ア	-12739
カ	-12740
ざ	-12741
見	-12742
マ	-12743
d	-12744
ょ	-12745
^	-12746
ぁ	-12747
キ	-12748
A	-12749
b	-12750
ロ	-12751
タ	-12752
バ	-12753
フ	-12754
ぎ	-12755
チ	-12756
レ	-12757
出	-12758
・	-12759
ほ	-12760
時	-12761
思	-12762
R	-12763
事	-12764
一	-12765
シ	-12766
コ	-12767
S	-12768
メ	-12769
パ	-12770
言	-12771
間	-12772
ず	-12773
E	-12774
ジ	-12775
テ	-12776
プ	-12777
O	-12778
j	-12779
会	-12780
来	-12781
私	-12782
ド	-12783
分	-12784
本	-12785
M	-12786
N	-12787
楽	-12788
I	-12789
食	-12790
ャ	-12791
明	-12792
v	-12793
f	-12794
x	-12795
C	-12796
良	-12797
後	-12798
L	-12799
べ	-12800
中	-12801
J	-12802
D	-12803
最	-12804
年	-12805
K	-12806
P	-12807
生	-12808
オ	-12809
B	-12810
*	-12811
前	-12812
当	-12813
ぱ	-12814
子	-12815
ブ	-12816
z	-12817
;	-12818
何	-12819
張	-12820
ツ	-12821
H	-12822
グ	-12823
-	-12824
げ	-12825
方	-12826
ゆ	-12827
」	-12828
ム	-12829
好	-12830
「	-12831
無	-12832
感	-12833
U	-12834
手	-12835
G	-12836
Y	-12837
頑	-12838
入	-12839
全	-12840
高	-12841
サ	-12842
自	-12843
上	-12844
ニ	-12845
́	-12846
月	-12847
`	-12848
F	-12849
ダ	-12850
ぶ	-12851
回	-12852
ョ	-12853
ウ	-12854
ヤ	-12855
ひ	-12856
V	-12857
ナ	-12858
ビ	-12859
ハ	-12860
疲	-12861
愛	-12862
び	-12863
寝	-12864
ミ	-12865
目	-12866
デ	-12867
W	-12868
合	-12869
様	-12870
ケ	-12871
ュ	-12872
話	-12873
終	-12874
早	-12875
ワ	-12876
仕	-12877
夜	-12878
ィ	-12879
ぇ	-12880
帰	-12881
♡	-12882
変	-12883
ガ	-12884
む	-12885
可	-12886
ォ	-12887
ズ	-12888
エ	-12889
近	-12890
下	-12891
買	-12892
ぐ	-12893
X	-12894
q	-12895
ノ	-12896
モ	-12897
体	-12898
番	-12899
味	-12900
悪	-12901
理	-12902
持	-12903
Z	-12904
ふ	-12905
ホ	-12906
ェ	-12907
知	-12908
嬉	-12909
物	-12910
願	-12911
休	-12912
ァ	-12913
学	-12914
々	-12915
ピ	-12916
応	-12917
心	-12918
ボ	-12919
動	-12920
゚	-12921
ベ	-12922
先	-12923
初	-12924
セ	-12925
朝	-12926
Q	-12927
度	-12928
ポ	-12929
真	-12930
的	-12931
昨	-12932
部	-12933
家	-12934
残	-12935
結	-12936
定	-12937
作	-12938
へ	-12939
待	-12940
過	-12941
痛	-12942
画	-12943
ソ	-12944
対	-12945
新	-12946
ザ	-12947
夫	-12948
通	-12949
顔	-12950
場	-12951
ぞ	-12952
ネ	-12953
美	-12954
金	-12955
丈	-12956
週	-12957
ぬ	-12958
違	-12959
ω	-12960
多	-12961
聞	-12962
長	-12963
女	-12964
ぉ	-12965
毎	-12966
外	-12967
発	-12968
♪	-12969
戦	-12970
名	-12971
強	-12972
車	-12973
寒	-12974
ぜ	-12975
風	-12976
付	-12977
▽	-12978
意	-12979
祭	-12980
念	-12981
元	-12982
ペ	-12983
東	-12984
切	-12985
泣	-12986
電	-12987
不	-12988
達	-12989
然	-12990
絶	-12991
実	-12992
ゴ	-12993
地	-12994
同	-12995
ゲ	-12996
面	-12997
春	-12998
使	-12999
ぼ	-13000
ぃ	-13001
取	-13002
少	-13003
~	-13004
京	-13005
連	-13006
予	-13007
俺	-13008
起	-13009
欲	-13010
色	-13011
力	-13012
̥	-13013
写	-13014
山	-13015
超	-13016
怖	-13017
暑	-13018
久	-13019
ギ	-13020
着	-13021
安	-13022
校	-13023
次	-13024
素	-13025
落	-13026
期	-13027
=	-13028
国	-13029
緒	-13030
飲	-13031
遅	-13032
田	-13033
ゅ	-13034
勝	-13035
速	-13036
白	-13037
嫌	-13038
優	-13039
屋	-13040
業	-13041
調	-13042
︎	-13043
売	-13044
加	-13045
\	-13046
曜	-13047
腹	-13048
返	-13049
所	-13050
足	-13051
引	-13052
誰	-13053
死	-13054
考	-13055
二	-13056
配	-13057
撃	-13058
%	-13059
小	-13060
店	-13061
野	-13062
開	-13063
信	-13064
̄	-13065
参	-13066
選	-13067
以	-13068
友	-13069
立	-13070
忘	-13071
←	-13072
ヒ	-13073
>	-13074
ぽ	-13075
観	-13076
頭	-13077
送	-13078
天	-13079
者	-13080
乗	-13081
募	-13082
ぅ	-13083
確	-13084
内	-13085
書	-13086
水	-13087
活	-13088
°	-13089
撮	-13090
<	-13091
ぴ	-13092
代	-13093
神	-13094
仲	-13095
半	-13096
遊	-13097
•	-13098
関	-13099
凄	-13100
身	-13101
敵	-13102
教	-13103
始	-13104
覚	-13105
木	-13106
眠	-13107
続	-13108
声	-13109
直	-13110
性	-13111
成	-13112
誕	-13113
歌	-13114
皆	-13115
呼	-13116
決	-13117
"	-13118
数	-13119
想	-13120
土	-13121
果	-13122
絡	-13123
辛	-13124
男	-13125
文	-13126
込	-13127
相	-13128
用	-13129
幸	-13130
道	-13131
雨	-13132
空	-13133
報	-13134
&	-13135
口	-13136
流	-13137
̇	-13138
機	-13139
世	-13140
社	-13141
☆	-13142
三	-13143
難	-13144
止	-13145
飯	-13146
解	-13147
熱	-13148
品	-13149
化	-13150
花	-13151
語	-13152
現	-13153
→	-13154
怒	-13155
ヨ	-13156
公	-13157
情	-13158
限	-13159
夏	-13160
̣	-13161
援	-13162
我	-13163
づ	-13164
受	-13165
運	-13166
集	-13167
円	-13168
有	-13169
読	-13170
音	-13171
位	-13172
遠	-13173
ぷ	-13174
'	-13175
曲	-13176
演	-13177
葉	-13178
問	-13179
重	-13180
勉	-13181
病	-13182
試	-13183
海	-13184
邪	-13185
爆	-13186
表	-13187
悲	-13188
習	-13189
転	-13190
普	-13191
髪	-13192
周	-13193
”	-13194
許	-13195
員	-13196
僕	-13197
夢	-13198
了	-13199
他	-13200
栄	-13201
台	-13202
歩	-13203
君	-13204
完	-13205
頂	-13206
『	-13207
消	-13208
向	-13209
負	-13210
阪	-13211
降	-13212
苦	-13213
養	-13214
親	-13215
』	-13216
“	-13217
題	-13218
万	-13219
字	-13220
像	-13221
昼	-13222
居	-13223
約	-13224
挑	-13225
院	-13226
構	-13227
飛	-13228
治	-13229
∀	-13230
太	-13231
点	-13232
映	-13233
別	-13234
放	-13235
聴	-13236
Д	-13237
,	-13238
増	-13239
急	-13240
歳	-13241
格	-13242
正	-13243
勤	-13244
特	-13245
母	-13246
失	-13247
平	-13248
彼	-13249
‧	-13250
′	-13251
ユ	-13252
謝	-13253
川	-13254
焼	-13255
伝	-13256
記	-13257
ゼ	-13258
界	-13259
๑	-13260
料	-13261
組	-13262
‵	-13263
島	-13264
似	-13265
原	-13266
反	-13267
号	-13268
更	-13269
第	-13270
꒫	-13271
寂	-13272
非	-13273
走	-13274
末	-13275
吐	-13276
輩	-13277
ぢ	-13278
個	-13279
保	-13280
ヘ	-13281
古	-13282
申	-13283
絵	-13284
段	-13285
枚	-13286
雪	-13287
線	-13288
戻	-13289
肉	-13290
忙	-13291
要	-13292
指	-13293
打	-13294
必	-13295
岡	-13296
験	-13297
余	-13298
沢	-13299
訳	-13300
服	-13301
能	-13302
福	-13303
晴	-13304
頃	-13305
冷	-13306
倒	-13307
抜	-13308
録	-13309
【	-13310
交	-13311
】	-13312
座	-13313
是	-13314
届	-13315
経	-13316
満	-13317
散	-13318
置	-13319
温	-13320
和	-13321
投	-13322
赤	-13323
練	-13324
都	-13325
涙	-13326
麗	-13327
北	-13328
迷	-13329
ヶ	-13330
供	-13331
症	-13332
育	-13333
追	-13334
息	-13335
横	-13336
計	-13337
園	-13338
質	-13339
頼	-13340
換	-13341
推	-13342
制	-13343
越	-13344
黒	-13345
主	-13346
産	-13347
探	-13348
激	-13349
進	-13350
常	-13351
状	-13352
席	-13353
卒	-13354
宅	-13355
駅	-13356
綺	-13357
得	-13358
去	-13359
量	-13360
西	-13361
離	-13362
式	-13363
石	-13364
|	-13365
ゎ	-13366
広	-13367
減	-13368
娘	-13369
影	-13370
局	-13371
暇	-13372
告	-13373
突	-13374
単	-13375
馬	-13376
迎	-13377
職	-13378
賞	-13379
再	-13380
断	-13381
備	-13382
○	-13383
市	-13384
繋	-13385
検	-13386
礼	-13387
宜	-13388
民	-13389
恐	-13390
魔	-13391
態	-13392
割	-13393
貰	-13394
火	-13395
描	-13396
酒	-13397
∇	-13398
復	-13399
望	-13400
呂	-13401
毛	-13402
団	-13403
低	-13404
逆	-13405
若	-13406
在	-13407
旅	-13408
殺	-13409
故	-13410
振	-13411
認	-13412
帯	-13413
球	-13414
容	-13415
鼻	-13416
郎	-13417
羨	-13418
井	-13419
利	-13420
悔	-13421
係	-13422
姉	-13423
注	-13424
布	-13425
法	-13426
洗	-13427
震	-13428
茶	-13429
氏	-13430
盛	-13431
差	-13432
互	-13433
助	-13434
ヽ	-13435
途	-13436
那	-13437
装	-13438
血	-13439
舞	-13440
薬	-13441
未	-13442
谷	-13443
弾	-13444
逃	-13445
命	-13446
共	-13447
青	-13448
千	-13449
猫	-13450
件	-13451
系	-13452
兄	-13453
働	-13454
慢	-13455
瞬	-13456
壊	-13457
客	-13458
⌒	-13459
退	-13460
弁	-13461
旦	-13462
宮	-13463
松	-13464
程	-13465
住	-13466
ヴ	-13467
充	-13468
喜	-13469
恋	-13470
困	-13471
夕	-13472
並	-13473
光	-13474
印	-13475
由	-13476
登	-13477
象	-13478
д	-13479
県	-13480
≦	-13481
族	-13482
≧	-13483
存	-13484
深	-13485
健	-13486
準	-13487
+	-13488
甘	-13489
室	-13490
宿	-13491
丸	-13492
酔	-13493
階	-13494
除	-13495
婚	-13496
役	-13497
軽	-13498
韓	-13499
香	-13500
驚	-13501
筋	-13502
議	-13503
御	-13504
村	-13505
館	-13506
玉	-13507
給	-13508
倍	-13509
ゾ	-13510
士	-13511
星	-13512
緊	-13513
密	-13514
視	-13515
混	-13516
奴	-13517
惑	-13518
藤	-13519
修	-13520
奈	-13521
科	-13522
細	-13523
ぺ	-13524
守	-13525
端	-13526
隣	-13527
寄	-13528
接	-13529
説	-13530
渡	-13531
価	-13532
悩	-13533
危	-13534
改	-13535
秘	-13536
昔	-13537
為	-13538
浮	-13539
午	-13540
父	-13541
圧	-13542
販	-13543
̆	-13544
課	-13545
介	-13546
癒	-13547
ا	-13548
暖	-13549
箱	-13550
王	-13551
英	-13552
掛	-13553
酷	-13554
率	-13555
携	-13556
辞	-13557
種	-13558
替	-13559
冬	-13560
被	-13561
衣	-13562
゙	-13563
際	-13564
値	-13565
歯	-13566
紙	-13567
ゥ	-13568
垢	-13569
担	-13570
嘘	-13571
希	-13572
務	-13573
祝	-13574
器	-13575
載	-13576
型	-13577
形	-13578
雑	-13579
司	-13580
弱	-13581
巻	-13582
秋	-13583
戸	-13584
姿	-13585
誘	-13586
支	-13587
識	-13588
角	-13589
勢	-13590
粉	-13591
押	-13592
片	-13593
致	-13594
興	-13595
効	-13596
鹿	-13597
収	-13598
任	-13599
握	-13600
懐	-13601
菜	-13602
恥	-13603
ᴗ	-13604
両	-13605
談	-13606
汗	-13607
工	-13608
移	-13609
崎	-13610
払	-13611
首	-13612
師	-13613
浜	-13614
短	-13615
具	-13616
睡	-13617
晩	-13618
静	-13619
桜	-13620
節	-13621
裏	-13622
敗	-13623
犬	-13624
整	-13625
و	-13626
吉	-13627
害	-13628
駄	-13629
設	-13630
怪	-13631
路	-13632
囲	-13633
焦	-13634
右	-13635
左	-13636
鳥	-13637
諦	-13638
貴	-13639
妹	-13640
根	-13641
費	-13642
臭	-13643
武	-13644
便	-13645
精	-13646
厳	-13647
橋	-13648
傷	-13649
泊	-13650
●	-13651
十	-13652
禁	-13653
裕	-13654
伸	-13655
荒	-13656
☞	-13657
痩	-13658
評	-13659
授	-13660
華	-13661
営	-13662
譲	-13663
耳	-13664
極	-13665
喉	-13666
四	-13667
義	-13668
肌	-13669
胃	-13670
渋	-13671
察	-13672
触	-13673
処	-13674
折	-13675
ヌ	-13676
納	-13677
菓	-13678
労	-13679
波	-13680
森	-13681
城	-13682
護	-13683
刺	-13684
派	-13685
弟	-13686
̀	-13687
杯	-13688
抱	-13689
吹	-13690
技	-13691
腰	-13692
祈	-13693
染	-13694
·	-13695
坂	-13696
慣	-13697
警	-13698
鬼	-13699
側	-13700
刻	-13701
破	-13702
南	-13703
∩	-13704
篇	-13705
脱	-13706
案	-13707
背	-13708
喋	-13709
ل	-13710
荷	-13711
補	-13712
٩	-13713
捨	-13714
辺	-13715
列	-13716
草	-13717
基	-13718
術	-13719
医	-13720
判	-13721
汚	-13722
炎	-13723
攻	-13724
勘	-13725
褒	-13726
袋	-13727
編	-13728
吸	-13729
涼	-13730
済	-13731
鳴	-13732
×	-13733
響	-13734
答	-13735
乳	-13736
坊	-13737
券	-13738
政	-13739
類	-13740
豆	-13741
快	-13742
暴	-13743
佐	-13744
虫	-13745
劇	-13746
展	-13747
町	-13748
比	-13749
┓	-13750
─	-13751
票	-13752
踊	-13753
協	-13754
ˆ	-13755
求	-13756
積	-13757
梅	-13758
ي	-13759
児	-13760
幕	-13761
詳	-13762
掃	-13763
▼	-13764
胸	-13765
等	-13766
五	-13767
微	-13768
永	-13769
詰	-13770
嵐	-13771
札	-13772
景	-13773
骨	-13774
異	-13775
季	-13776
Σ	-13777
滅	-13778
銀	-13779
権	-13780
診	-13781
独	-13782
麻	-13783
ヲ	-13784
崩	-13785
憩	-13786
示	-13787
八	-13788
論	-13789
里	-13790
隠	-13791
総	-13792
適	-13793
購	-13794
険	-13795
ه	-13796
ヾ	-13797
閉	-13798
羽	-13799
干	-13800
敬	-13801
池	-13802
防	-13803
罪	-13804
省	-13805
米	-13806
−	-13807
門	-13808
企	-13809
商	-13810
哀	-13811
腕	-13812
陽	-13813
ε	-13814
濯	-13815
図	-13816
暗	-13817
到	-13818
留	-13819
級	-13820
拶	-13821
★	-13822
挨	-13823
憶	-13824
咲	-13825
拡	-13826
既	-13827
党	-13828
束	-13829
抽	-13830
紹	-13831
謎	-13832
簡	-13833
鉄	-13834
♬	-13835
研	-13836
揃	-13837
査	-13838
志	-13839
催	-13840
捕	-13841
誤	-13842
油	-13843
眼	-13844
証	-13845
就	-13846
肩	-13847
芸	-13848
康	-13849
庫	-13850
揺	-13851
沖	-13852
泉	-13853
魚	-13854
尾	-13855
━	-13856
奥	-13857
稼	-13858
珍	-13859
規	-13860
欠	-13861
犯	-13862
↓	-13863
純	-13864
寿	-13865
也	-13866
尊	-13867
管	-13868
港	-13869
富	-13870
履	-13871
伊	-13872
財	-13873
》	-13874
岩	-13875
◎	-13876
源	-13877
況	-13878
照	-13879
漫	-13880
仮	-13881
湯	-13882
逢	-13883
縄	-13884
叫	-13885
例	-13886
牛	-13887
姫	-13888
専	-13889
資	-13890
塗	-13891
浴	-13892
順	-13893
老	-13894
雷	-13895
才	-13896
靴	-13897
幹	-13898
《	-13899
❤	-13900
句	-13901
婦	-13902
獄	-13903
騒	-13904
̶	-13905
監	-13906
紅	-13907
津	-13908
丁	-13909
ᄏ	-13910
瀬	-13911
洋	-13912
塩	-13913
ᅲ	-13914
額	-13915
因	-13916
妙	-13917
乾	-13918
延	-13919
脳	-13920
距	-13921
翔	-13922
貯	-13923
耐	-13924
勇	-13925
模	-13926
ゞ	-13927
固	-13928
境	-13929
狙	-13930
釣	-13931
提	-13932
環	-13933
典	-13934
踏	-13935
腐	-13936
救	-13937
宝	-13938
街	-13939
版	-13940
堂	-13941
✧	-13942
亡	-13943
薄	-13944
枠	-13945
幼	-13946
◡	-13947
借	-13948
史	-13949
条	-13950
溜	-13951
[	-13952
♫	-13953
剣	-13954
拝	-13955
꒳	-13956
将	-13957
飼	-13958
〇	-13959
免	-13960
]	-13961
盤	-13962
材	-13963
秒	-13964
清	-13965
潰	-13966
狂	-13967
雰	-13968
۶	-13969
賀	-13970
避	-13971
即	-13972
齢	-13973
⸝	-13974
索	-13975
乃	-13976
策	-13977
江	-13978
舎	-13979
寺	-13980
隊	-13981
臓	-13982
恵	-13983
遣	-13984
乱	-13985
般	-13986
柄	-13987
彩	-13988
区	-13989
豪	-13990
射	-13991
窓	-13992
継	-13993
黄	-13994
九	-13995
講	-13996
仙	-13997
衝	-13998
奇	-13999
嫁	-14000
歓	-14001
濃	-14002
税	-14003
凍	-14004
征	-14005
製	-14006
輪	-14007
陰	-14008
剤	-14009
喧	-14010
幌	-14011
匂	-14012
稿	-14013
貼	-14014
疑	-14015
樹	-14016
跡	-14017
嘩	-14018
挙	-14019
萎	-14020
算	-14021
己	-14022
闘	-14023
☜	-14024
ˊ	-14025
障	-14026
鮮	-14027
巨	-14028
暮	-14029
宇	-14030
漢	-14031
艸	-14032
◯	-14033
歴	-14034
ˋ	-14035
梨	-14036
呟	-14037
甲	-14038
板	-14039
♩	-14040
叩	-14041
詞	-14042
看	-14043
締	-14044
↑	-14045
標	-14046
腫	-14047
麺	-14048
咳	-14049
責	-14050
州	-14051
停	-14052
呑	-14053
庭	-14054
倉	-14055
痴	-14056
七	-14057
百	-14058
否	-14059
鍵	-14060
砂	-14061
塾	-14062
〃	-14063
壁	-14064
蔵	-14065
軍	-14066
船	-14067
躍	-14068
̴	-14069
偉	-14070
林	-14071
奏	-14072
癖	-14073
奮	-14074
功	-14075
督	-14076
争	-14077
粧	-14078
災	-14079
露	-14080
扱	-14081
矢	-14082
͈	-14083
豚	-14084
複	-14085
尻	-14086
底	-14087
章	-14088
努	-14089
̫	-14090
群	-14091
厚	-14092
毒	-14093
療	-14094
棒	-14095
桃	-14096
豊	-14097
陸	-14098
熊	-14099
穴	-14100
皮	-14101
磨	-14102
飽	-14103
魅	-14104
削	-14105
黙	-14106
憧	-14107
˃	-14108
˂	-14109
雲	-14110
鍋	-14111
⤴	-14112
埋	-14113
縁	-14114
盗	-14115
✩	-14116
曇	-14117
房	-14118
揚	-14119
誌	-14120
又	-14121
噛	-14122
占	-14123
吾	-14124
副	-14125
猛	-14126
鏡	-14127
博	-14128
悟	-14129
損	-14130
傘	-14131
貸	-14132
龍	-14133
殴	-14134
輝	-14135
̷	-14136
卵	-14137
缶	-14138
迫	-14139
遇	-14140
喫	-14141
緑	-14142
埼	-14143
氷	-14144
浦	-14145
湿	-14146
汁	-14147
抗	-14148
招	-14149
脚	-14150
萌	-14151
漏	-14152
徹	-14153
滞	-14154
衛	-14155
妄	-14156
溢	-14157
◇	-14158
与	-14159
匹	-14160
造	-14161
惚	-14162
꒪	-14163
尽	-14164
溶	-14165
魂	-14166
府	-14167
燃	-14168
ن	-14169
͡	-14170
聖	-14171
紫	-14172
璧	-14173
哈	-14174
鈴	-14175
床	-14176
競	-14177
操	-14178
導	-14179
ت	-14180
宣	-14181
駐	-14182
候	-14183
亀	-14184
測	-14185
竹	-14186
含	-14187
沼	-14188
遭	-14189
覧	-14190
詐	-14191
欺	-14192
兵	-14193
六	-14194
河	-14195
駆	-14196
包	-14197
須	-14198
愚	-14199
̩	-14200
□	-14201
滑	-14202
妬	-14203
域	-14204
煮	-14205
官	-14206
꒱	-14207
膝	-14208
繰	-14209
酸	-14210
ฅ	-14211
鬱	-14212
貧	-14213
͟	-14214
丼	-14215
奪	-14216
趣	-14217
建	-14218
智	-14219
੭	-14220
闇	-14221
̊	-14222
央	-14223
飾	-14224
꒰	-14225
懸	-14226
※	-14227
勿	-14228
ع	-14229
叶	-14230
狭	-14231
⇒	-14232
討	-14233
塚	-14234
採	-14235
⊙	-14236
億	-14237
‹	-14238
爪	-14239
妊	-14240
各	-14241
唯	-14242
偶	-14243
慎	-14244
’	-14245
̈	-14246
❛	-14247
蒸	-14248
徒	-14249
究	-14250
腸	-14251
潟	-14252
ʬ	-14253
͞	-14254
இ	-14255
雄	-14256
控	-14257
乙	-14258
択	-14259
請	-14260
ب	-14261
舗	-14262
双	-14263
噌	-14264
沙	-14265
審	-14266
ر	-14267
液	-14268
舐	-14269
善	-14270
陣	-14271
浸	-14272
織	-14273
浅	-14274
ق	-14275
寧	-14276
糞	-14277
ิ	-14278
帽	-14279
徳	-14280
ຶ	-14281
濡	-14282
σ	-14283
糖	-14284
添	-14285
臣	-14286
¥	-14287
紀	-14288
嫉	-14289
煙	-14290
拾	-14291
柔	-14292
▷	-14293
晒	-14294
唱	-14295
澤	-14296
о	-14297
袖	-14298
宙	-14299
巡	-14300
至	-14301
縮	-14302
煽	-14303
依	-14304
稚	-14305
襲	-14306
霊	-14307
只	-14308
阿	-14309
剛	-14310
秀	-14311
植	-14312
童	-14313
玄	-14314
唐	-14315
呪	-14316
湾	-14317
劣	-14318
統	-14319
你	-14320
廃	-14321
斗	-14322
ु	-14323
肝	-14324
騙	-14325
鑑	-14326
›	-14327
麦	-14328
م	-14329
亜	-14330
属	-14331
施	-14332
裁	-14333
ง	-14334
賛	-14335
封	-14336
岐	-14337
刀	-14338
蚊	-14339
舌	-14340
刑	-14341
訪	-14342
創	-14343
筆	-14344
⤵	-14345
岸	-14346
爽	-14347
竜	-14348
均	-14349
蹴	-14350
刊	-14351
॑	-14352
帳	-14353
妻	-14354
莉	-14355
᷅	-14356
凸	-14357
᷄	-14358
令	-14359
偏	-14360
痒	-14361
拒	-14362
略	-14363
脂	-14364
⊂	-14365
励	-14366
裸	-14367
噂	-14368
預	-14369
◞	-14370
益	-14371
凹	-14372
拓	-14373
鶴	-14374
臨	-14375
敷	-14376
領	-14377
ॢ	-14378
忍	-14379
ั	-14380
韻	-14381
遺	-14382
杉	-14383
慮	-14384
杏	-14385
匠	-14386
範	-14387
皿	-14388
∠	-14389
層	-14390
̑	-14391
拠	-14392
郵	-14393
則	-14394
이	-14395
勧	-14396
ゝ	-14397
د	-14398
ू	-14399
◠	-14400
透	-14401
銭	-14402
沈	-14403
隆	-14404
☻	-14405
冗	-14406
承	-14407
獣	-14408
尚	-14409
昇	-14410
泥	-14411
堪	-14412
༎	-14413
穏	-14414
抑	-14415
馴	-14416
稲	-14417
覗	-14418
̵	-14419
恨	-14420
威	-14421
把	-14422
卍	-14423
湧	-14424
扇	-14425
з	-14426
☺	-14427
没	-14428
◦	-14429
嬢	-14430
冊	-14431
剥	-14432
芋	-14433
貞	-14434
惜	-14435
泳	-14436
燥	-14437
罰	-14438
―	-14439
某	-14440
殿	-14441
慌	-14442
易	-14443
旨	-14444
佳	-14445
契	-14446
卓	-14447
熟	-14448
誠	-14449
阜	-14450
玲	-14451
幅	-14452
獲	-14453
潤	-14454
ʕ	-14455
之	-14456
狩	-14457
挟	-14458
憂	-14459
裂	-14460
奢	-14461
孫	-14462
餃	-14463
粋	-14464
贈	-14465
畑	-14466
績	-14467
‿	-14468
眉	-14469
炭	-14470
า	-14471
炊	-14472
称	-14473
委	-14474
糸	-14475
虎	-14476
ˇ	-14477
畜	-14478
餅	-14479
掘	-14480
̧	-14481
≡	-14482
賢	-14483
綾	-14484
╹	-14485
น	-14486
⊃	-14487
虹	-14488
摂	-14489
訴	-14490
旧	-14491
迄	-14492
雅	-14493
披	-14494
抹	-14495
盆	-14496
籍	-14497
芝	-14498
虐	-14499
遽	-14500
沸	-14501
̮	-14502
娠	-14503
嘔	-14504
株	-14505
◟	-14506
椅	-14507
堀	-14508
妖	-14509
棚	-14510
贅	-14511
菅	-14512
淋	-14513
烈	-14514
彡	-14515
覇	-14516
滴	-14517
仁	-14518
稽	-14519
⌓	-14520
縛	-14521
腺	-14522
灯	-14523
眺	-14524
◝	-14525
ᄇ	-14526
ʔ	-14527
維	-14528
昭	-14529
ก	-14530
栗	-14531
厄	-14532
湖	-14533
還	-14534
枝	-14535
繁	-14536
兼	-14537
匿	-14538
穂	-14539
ヵ	-14540
哉	-14541
僚	-14542
羅	-14543
ᅠ	-14544
鍛	-14545
旬	-14546
다	-14547
馳	-14548
◜	-14549
牧	-14550
仰	-14551
逮	-14552
❁	-14553
漬	-14554
요	-14555
菌	-14556
跳	-14557
∧	-14558
宵	-14559
汰	-14560
紛	-14561
掴	-14562
伏	-14563
╰	-14564
惨	-14565
貢	-14566
絆	-14567
翌	-14568
遂	-14569
往	-14570
弥	-14571
‘	-14572
宗	-14573
՞	-14574
ᗜ	-14575
貨	-14576
鶏	-14577
掲	-14578
╯	-14579
帝	-14580
呆	-14581
茨	-14582
┃	-14583
垂	-14584
蓮	-14585
諸	-14586
従	-14587
ヂ	-14588
郷	-14589
頻	-14590
婆	-14591
患	-14592
航	-14593
柴	-14594
偽	-14595
机	-14596
喰	-14597
針	-14598
欄	-14599
如	-14600
脇	-14601
暫	-14602
祖	-14603
俳	-14604
厨	-14605
醒	-14606
⁎	-14607
硬	-14608
枕	-14609
飴	-14610
献	-14611
♥	-14612
อ	-14613
唇	-14614
幻	-14615
筒	-14616
絞	-14617
敢	-14618
屈	-14619
撲	-14620
悠	-14621
儀	-14622
皇	-14623
寸	-14624
拭	-14625
眩	-14626
築	-14627
虚	-14628
凛	-14629
肪	-14630
滝	-14631
慰	-14632
及	-14633
農	-14634
垣	-14635
菊	-14636
斐	-14637
蘭	-14638
律	-14639
拍	-14640
潜	-14641
ح	-14642
股	-14643
啊	-14644
塁	-14645
紗	-14646
△	-14647
欅	-14648
械	-14649
緩	-14650
鎖	-14651
仏	-14652
伺	-14653
桁	-14654
⸜	-14655
揮	-14656
膚	-14657
아	-14658
◍	-14659
醤	-14660
恩	-14661
署	-14662
่	-14663
—	-14664
軒	-14665
ك	-14666
亮	-14667
柳	-14668
革	-14669
很	-14670
̸	-14671
鼓	-14672
洒	-14673
訓	-14674
侍	-14675
猿	-14676
釈	-14677
尋	-14678
恒	-14679
芽	-14680
憎	-14681
怠	-14682
排	-14683
軟	-14684
召	-14685
粘	-14686
縫	-14687
翼	-14688
栃	-14689
隙	-14690
却	-14691
하	-14692
狼	-14693
س	-14694
憲	-14695
⋆	-14696
〣	-14697
浪	-14698
慶	-14699
貫	-14700
祐	-14701
오	-14702
併	-14703
墓	-14704
鯖	-14705
粒	-14706
枯	-14707
苗	-14708
需	-14709
〉	-14710
倫	-14711
巣	-14712
批	-14713
騎	-14714
彙	-14715
〈	-14716
顎	-14717
卑	-14718
柏	-14719
刷	-14720
抵	-14721
௰	-14722
櫻	-14723
౪	-14724
ว	-14725
祥	-14726
⑅	-14727
哲	-14728
閣	-14729
戯	-14730
┌	-14731
◉	-14732
어	-14733
愉	-14734
疹	-14735
撤	-14736
棄	-14737
隈	-14738
昧	-14739
圏	-14740
摘	-14741
朗	-14742
艦	-14743
고	-14744
償	-14745
斎	-14746
圭	-14747
ม	-14748
詩	-14749
乏	-14750
嶋	-14751
衆	-14752
拳	-14753
譜	-14754
酢	-14755
漁	-14756
เ	-14757
執	-14758
凝	-14759
泡	-14760
朱	-14761
此	-14762
ᄒ	-14763
揉	-14764
葵	-14765
ρ	-14766
随	-14767
✿	-14768
徴	-14769
賃	-14770
項	-14771
孝	-14772
瓶	-14773
誉	-14774
θ	-14775
瑠	-14776
錦	-14777
ฺ	-14778
✌	-14779
蒼	-14780
餌	-14781
니	-14782
戚	-14783
概	-14784
冒	-14785
▿	-14786
珠	-14787
้	-14788
俊	-14789
摩	-14790
炒	-14791
誇	-14792
̅	-14793
冥	-14794
꒦	-14795
懲	-14796
∞	-14797
擦	-14798
斉	-14799
隅	-14800
叱	-14801
疎	-14802
尿	-14803
痺	-14804
ย	-14805
縦	-14806
傾	-14807
寮	-14808
͒	-14809
痢	-14810
┏	-14811
爺	-14812
壮	-14813
蛇	-14814
旗	-14815
浄	-14816
刈	-14817
銃	-14818
怯	-14819
駒	-14820
輔	-14821
̤	-14822
❢	-14823
牡	-14824
膨	-14825
貝	-14826
潮	-14827
殆	-14828
雀	-14829
霧	-14830
釜	-14831
班	-14832
隔	-14833
ψ	-14834
函	-14835
蕎	-14836
較	-14837
戒	-14838
┐	-14839
╥	-14840
脅	-14841
鎌	-14842
❀	-14843
唄	-14844
姐	-14845
丹	-14846
盾	-14847
賑	-14848
⃛	-14849
遥	-14850
孤	-14851
φ	-14852
ش	-14853
媛	-14854
箇	-14855
塊	-14856
惹	-14857
侵	-14858
挫	-14859
琴	-14860
瞳	-14861
佑	-14862
兆	-14863
苛	-14864
ヅ	-14865
斜	-14866
해	-14867
柿	-14868
滋	-14869
伴	-14870
╮	-14871
斬	-14872
喘	-14873
拗	-14874
零	-14875
塞	-14876
淡	-14877
ゔ	-14878
桐	-14879
羊	-14880
儲	-14881
‍	-14882
穫	-14883
粗	-14884
淳	-14885
蘇	-14886
彦	-14887
∑	-14888
姪	-14889
弦	-14890
∵	-14891
♯	-14892
丘	-14893
ヮ	-14894
李	-14895
禿	-14896
瑞	-14897
ร	-14898
๐	-14899
敏	-14900
吃	-14901
謡	-14902
일	-14903
ૢ	-14904
ᴖ	-14905
簿	-14906
帆	-14907
渉	-14908
肥	-14909
৹	-14910
ᐛ	-14911
徐	-14912
苑	-14913
葛	-14914
雇	-14915
¬	-14916
嚇	-14917
肺	-14918
亭	-14919
柚	-14920
洲	-14921
〆	-14922
沿	-14923
⃙	-14924
사	-14925
促	-14926
忠	-14927
旋	-14928
–	-14929
冠	-14930
喚	-14931
紐	-14932
括	-14933
逝	-14934
宴	-14935
楓	-14936
鈍	-14937
砕	-14938
謙	-14939
❥	-14940
累	-14941
網	-14942
扉	-14943
郡	-14944
髭	-14945
∂	-14946
⃘	-14947
肢	-14948
나	-14949
愕	-14950
潔	-14951
脈	-14952
諭	-14953
酬	-14954
湘	-14955
來	-14956
凶	-14957
薦	-14958
浩	-14959
礎	-14960
柱	-14961
╭	-14962
珈	-14963
琲	-14964
̨	-14965
捻	-14966
지	-14967
蜂	-14968
鳩	-14969
甥	-14970
符	-14971
翻	-14972
蓋	-14973
倶	-14974
昌	-14975
⁄	-14976
阻	-14977
⭐	-14978
壇	-14979
罒	-14980
吠	-14981
撫	-14982
ꉂ	-14983
⌯	-14984
赦	-14985
⃝	-14986
序	-14987
旭	-14988
μ	-14989
吊	-14990
融	-14991
箸	-14992
輸	-14993
串	-14994
	-14995
戴	-14996
笠	-14997
錯	-14998
塔	-14999
┘	-15000
灬	-15001
酎	-15002
俗	-15003
睨	-15004
胡	-15005
†	-15006
☝	-15007
┗	-15008
噴	-15009
澄	-15010
砲	-15011
鷹	-15012
堅	-15013
弄	-15014
晋	-15015
Θ	-15016
◔	-15017
弓	-15018
蠣	-15019
β	-15020
姜	-15021
晶	-15022
兎	-15023
捜	-15024
椎	-15025
膜	-15026
託	-15027
伎	-15028
葬	-15029
濱	-15030
ี	-15031
∗	-15032
✪	-15033
가	-15034
悶	-15035
籠	-15036
雛	-15037
鰻	-15038
에	-15039
蒲	-15040
云	-15041
茎	-15042
克	-15043
‐	-15044
廊	-15045
苺	-15046
辿	-15047
┛	-15048
寛	-15049
顧	-15050
偵	-15051
聡	-15052
殻	-15053
溺	-15054
萩	-15055
✔	-15056
架	-15057
駿	-15058
析	-15059
리	-15060
α	-15061
刃	-15062
肘	-15063
蜜	-15064
辻	-15065
逸	-15066
ღ	-15067
凡	-15068
彰	-15069
	-15070
泰	-15071
矯	-15072
撒	-15073
掻	-15074
詫	-15075
ด	-15076
ᐢ	-15077
薫	-15078
◕	-15079
畳	-15080
ν	-15081
啦	-15082
幽	-15083
啓	-15084
蝉	-15085
■	-15086
犠	-15087
灰	-15088
茂	-15089
賊	-15090
拉	-15091
안	-15092
{	-15093
▒	-15094
誓	-15095
峰	-15096
蓄	-15097
盟	-15098
藍	-15099
妥	-15100
牲	-15101
銘	-15102
捉	-15103
邦	-15104
도	-15105
ິ	-15106
薇	-15107
т	-15108
└	-15109
磯	-15110
伯	-15111
桑	-15112
ะ	-15113
幾	-15114
奨	-15115
昆	-15116
疫	-15117
賭	-15118
↷	-15119
ᄆ	-15120
嗅	-15121
ཀ	-15122
綿	-15123
訂	-15124
̦	-15125
ᄉ	-15126
庁	-15127
弘	-15128
ล	-15129
壱	-15130
薔	-15131
세	-15132
頬	-15133
弊	-15134
Φ	-15135
⌑	-15136
妨	-15137
宛	-15138
憤	-15139
͜	-15140
杖	-15141
鞄	-15142
廉	-15143
牙	-15144
胞	-15145
晃	-15146
瀧	-15147
蕁	-15148
稀	-15149
陥	-15150
曽	-15151
冴	-15152
槽	-15153
遡	-15154
鴨	-15155
⇨	-15156
ห	-15157
宏	-15158
⋯	-15159
喝	-15160
嘉	-15161
陶	-15162
紋	-15163
著	-15164
謀	-15165
는	-15166
堺	-15167
恭	-15168
璃	-15169
掌	-15170
歪	-15171
祇	-15172
這	-15173
喪	-15174
岳	-15175
棟	-15176
楚	-15177
漂	-15178
ᅮ	-15179
堕	-15180
蟹	-15181
胆	-15182
勃	-15183
懇	-15184
苔	-15185
기	-15186
搬	-15187
擬	-15188
繊	-15189
耀	-15190
欧	-15191
躇	-15192
躊	-15193
鯛	-15194
‸	-15195
ृ	-15196
涛	-15197
溝	-15198
ლ	-15199
衰	-15200
郁	-15201
拘	-15202
殊	-15203
ค	-15204
捗	-15205
矛	-15206
綱	-15207
󾬍	-15208
疾	-15209
槻	-15210
자	-15211
󾭠	-15212
扁	-15213
盲	-15214
ŏ	-15215
猪	-15216
凱	-15217
慨	-15218
鮭	-15219
芳	-15220
淫	-15221
茉	-15222
蝶	-15223
隼	-15224
剰	-15225
ف	-15226
頓	-15227
ෆ	-15228
践	-15229
빠	-15230
𐤔	-15231
嘆	-15232
曖	-15233
마	-15234
叔	-15235
ོ	-15236
洞	-15237
篠	-15238
서	-15239
膏	-15240
剃	-15241
紳	-15242
$	-15243
ة	-15244
朋	-15245
蛍	-15246
僧	-15247
嶺	-15248
覆	-15249
鉢	-15250
ŧ	-15251
笛	-15252
ㄘ	-15253
	-15254
୧	-15255
은	-15256
ไ	-15257
⑉	-15258
膿	-15259
๓	-15260
⇢	-15261
茹	-15262
颯	-15263
倖	-15264
╬	-15265
尼	-15266
蜘	-15267
攣	-15268
祉	-15269
˶	-15270
裾	-15271
晚	-15272
晦	-15273
茜	-15274
◆	-15275
스	-15276
鎮	-15277
ó	-15278
荘	-15279
烏	-15280
筈	-15281
ꇴ	-15282
ॄ	-15283
ส	-15284
화	-15285
녕	-15286
ਊ	-15287
ื	-15288
核	-15289
窪	-15290
무	-15291
灼	-15292
시	-15293
}	-15294
仔	-15295
呉	-15296
柊	-15297
梶	-15298
ʘ	-15299
│	-15300
屁	-15301
鋭	-15302
狐	-15303
煩	-15304
蛛	-15305
幡	-15306
碧	-15307
Δ	-15308
國	-15309
媚	-15310
芯	-15311
炸	-15312
鉛	-15313
⠀	-15314
伽	-15315
暦	-15316
其	-15317
怜	-15318
廻	-15319
敦	-15320
軸	-15321
辱	-15322
卸	-15323
慈	-15324
罠	-15325
≖	-15326
汐	-15327
ڡ	-15328
獅	-15329
釘	-15330
Ü	-15331
庄	-15332
ต	-15333
유	-15334
한	-15335
บ	-15336
耶	-15337
琉	-15338
槍	-15339
수	-15340
ଘ	-15341
捧	-15342
만	-15343
보	-15344
󾭛	-15345
แ	-15346
桂	-15347
粥	-15348
୨	-15349
〝	-15350
渇	-15351
姑	-15352
辰	-15353
錠	-15354
饅	-15355
捏	-15356
̯	-15357
做	-15358
凌	-15359
煎	-15360
詮	-15361
粛	-15362
醜	-15363
嗚	-15364
霞	-15365
僅	-15366
搾	-15367
漠	-15368
腱	-15369
閲	-15370
ป	-15371
伐	-15372
糧	-15373
漕	-15374
鯉	-15375
주	-15376
乞	-15377
鷲	-15378
傍	-15379
인	-15380
정	-15381
凪	-15382
鋼	-15383
ò	-15384
있	-15385
ι	-15386
殖	-15387
ё	-15388
忌	-15389
栖	-15390
ີ	-15391
峠	-15392
棲	-15393
楼	-15394
筑	-15395
侮	-15396
曰	-15397
邸	-15398
팅	-15399
謹	-15400
┻	-15401
巾	-15402
滲	-15403
顕	-15404
	-15405
ท	-15406
鳳	-15407
	-15408
ᵎ	-15409
塵	-15410
彫	-15411
ο	-15412
愁	-15413
茸	-15414
酌	-15415
랑	-15416
循	-15417
渚	-15418
耗	-15419
茅	-15420
н	-15421
࿀	-15422
˖	-15423
☀	-15424
橘	-15425
磁	-15426
우	-15427
ᯅ	-15428
艶	-15429
蔭	-15430
◒	-15431
於	-15432
玩	-15433
霜	-15434
ص	-15435
จ	-15436
猥	-15437
碗	-15438
隷	-15439
미	-15440
ط	-15441
尖	-15442
ʚ	-15443
巧	-15444
怨	-15445
栽	-15446
搭	-15447
擁	-15448
挿	-15449
늘	-15450
呀	-15451
絢	-15452
椒	-15453
椿	-15454
騰	-15455
拷	-15456
栞	-15457
생	-15458
笹	-15459
▉	-15460
慧	-15461
襟	-15462
➡	-15463
纏	-15464
ʃ	-15465
述	-15466
鞘	-15467
Ф	-15468
ڼ	-15469
┈	-15470
拙	-15471
悸	-15472
紺	-15473
錬	-15474
靖	-15475
崇	-15476
憑	-15477
焚	-15478
蛮	-15479
舟	-15480
Ψ	-15481
╲	-15482
陵	-15483
檎	-15484
芦	-15485
怕	-15486
磐	-15487
轢	-15488
잘	-15489
琵	-15490
琶	-15491
轟	-15492
б	-15493
∪	-15494
痙	-15495
罵	-15496
飢	-15497
癌	-15498
٭	-15499
巴	-15500
袴	-15501
라	-15502
로	-15503
ɞ	-15504
琢	-15505
銅	-15506
»	-15507
í	-15508
а	-15509
щ	-15510
挽	-15511
⍢	-15512
胎	-15513
▓	-15514
	-15515
唾	-15516
ᗨ	-15517
但	-15518
侑	-15519
捌	-15520
渕	-15521
貶	-15522
餓	-15523
є	-15524
棋	-15525
痕	-15526
의	-15527
樽	-15528
詣	-15529
些	-15530
吧	-15531
墨	-15532
瘍	-15533
¦	-15534
█	-15535
畿	-15536
肋	-15537
	-15538
庶	-15539
瓜	-15540
秩	-15541
洪	-15542
陳	-15543
᷆	-15544
᷇	-15545
瑛	-15546
閃	-15547
خ	-15548
ᅀ	-15549
柵	-15550
너	-15551
й	-15552
р	-15553
ԅ	-15554
ಠ	-15555
咽	-15556
甚	-15557
茄	-15558
진	-15559
靭	-15560
⌣	-15561
ج	-15562
惣	-15563
翠	-15564
▶	-15565
庵	-15566
暁	-15567
瞼	-15568
貌	-15569
栓	-15570
氣	-15571
骸	-15572
을	-15573
ॣ	-15574
哭	-15575
肯	-15576
狗	-15577
妃	-15578
膳	-15579
彅	-15580
朴	-15581
鹸	-15582
芹	-15583
鱗	-15584
條	-15585
餐	-15586
꜆	-15587
ํ	-15588
孵	-15589
胴	-15590
е	-15591
ಗ	-15592
儚	-15593
그	-15594
내	-15595
야	-15596
☉	-15597
⁍	-15598
巳	-15599
湊	-15600
濁	-15601
篤	-15602
π	-15603
哦	-15604
與	-15605
裟	-15606
髙	-15607
繍	-15608
薮	-15609
陛	-15610
워	-15611
ч	-15612
✽	-15613
涯	-15614
酵	-15615
ʖ	-15616
竿	-15617
丑	-15618
唖	-15619
眞	-15620
ɷ	-15621
屓	-15622
梱	-15623
腎	-15624
贔	-15625
습	-15626
ᐡ	-15627
⇦	-15628
沁	-15629
稜	-15630
荻	-15631
鵬	-15632
	-15633
석	-15634
〟	-15635
┣	-15636
✲	-15637
瞑	-15638
袈	-15639
膀	-15640
軌	-15641
窟	-15642
ଓ	-15643
▲	-15644
↯	-15645
尺	-15646
拐	-15647
据	-15648
毅	-15649
淀	-15650
采	-15651
̃	-15652
ุ	-15653
楠	-15654
«	-15655
埃	-15656
奉	-15657
ꈊ	-15658
호	-15659
ö	-15660
曹	-15661
訟	-15662
	-15663
é	-15664
剖	-15665
祓	-15666
秦	-15667
臼	-15668
郭	-15669
ᅇ	-15670
綻	-15671
胱	-15672
諏	-15673
賄	-15674
대	-15675
٥	-15676
嬌	-15677
訃	-15678
麟	-15679
̡	-15680
悦	-15681
燕	-15682
≫	-15683
培	-15684
旺	-15685
鍼	-15686
▔	-15687
廣	-15688
疱	-15689
儘	-15690
冨	-15691
柑	-15692
睦	-15693
蒙	-15694
鐘	-15695
좋	-15696
͙	-15697
ὢ	-15698
모	-15699
ө	-15700
۝	-15701
箋	-15702
국	-15703
唸	-15704
崖	-15705
徘	-15706
徊	-15707
曝	-15708
痔	-15709
藻	-15710
ꈨ	-15711
게	-15712
岬	-15713
禄	-15714
餡	-15715
˟	-15716
˵	-15717
̭	-15718
〕	-15719
且	-15720
暉	-15721
말	-15722
용	-15723
카	-15724
ข	-15725
堤	-15726
梗	-15727
蕾	-15728
я	-15729
᎑	-15730
孔	-15731
朔	-15732
합	-15733
債	-15734
ੈ	-15735
瓦	-15736
菱	-15737
虜	-15738
該	-15739
본	-15740
싶	-15741
축	-15742
̢	-15743
卯	-15744
峯	-15745
淵	-15746
瀕	-15747
蓬	-15748
◁	-15749
脆	-15750
遮	-15751
˄	-15752
ذ	-15753
屑	-15754
賠	-15755
윤	-15756
﨑	-15757
傑	-15758
慄	-15759
소	-15760
̋	-15761
✰	-15762
升	-15763
姦	-15764
楊	-15765
逐	-15766
부	-15767
ˍ	-15768
พ	-15769
∴	-15770
⚭	-15771
॰	-15772
ཫ	-15773
⚡	-15774
綴	-15775
魁	-15776
여	-15777
히	-15778
ƪ	-15779
с	-15780
ऀ	-15781
∽	-15782
〔	-15783
慕	-15784
澪	-15785
莱	-15786
민	-15787
으	-15788
劫	-15789
呈	-15790
醸	-15791
󾀄	-15792
ู	-15793
宰	-15794
炙	-15795
玖	-15796
跨	-15797
네	-15798
υ	-15799
姓	-15800
捲	-15801
筐	-15802
蔑	-15803
迅	-15804
̿	-15805
ו	-15806
ᄋ	-15807
什	-15808
嶽	-15809
彷	-15810
讃	-15811
까	-15812
와	-15813
็	-15814
☛	-15815
♔	-15816
團	-15817
โ	-15818
叉	-15819
囁	-15820
琥	-15821
⃚	-15822
凜	-15823
篭	-15824
耕	-15825
϶	-15826
у	-15827
⁠	-15828
║	-15829
樋	-15830
窒	-15831
腔	-15832
赴	-15833
躾	-15834
釧	-15835
ഃ	-15836
丿	-15837
么	-15838
顏	-15839
데	-15840
仇	-15841
蛾	-15842
頷	-15843
	-15844
ใ	-15845
閑	-15846
ˉ	-15847
ช	-15848
┳	-15849
炉	-15850
상	-15851
Ő	-15852
்	-15853
后	-15854
径	-15855
ஐ	-15856
緯	-15857
辣	-15858
감	-15859
€	-15860
刹	-15861
會	-15862
髄	-15863
제	-15864
疼	-15865
腿	-15866
蛋	-15867
노	-15868
⌄	-15869
槃	-15870
涅	-15871
蔽	-15872
藁	-15873
遜	-15874
附	-15875
ꈍ	-15876
З	-15877
ᐜ	-15878
ゐ	-15879
吟	-15880
媒	-15881
峡	-15882
珀	-15883
트	-15884
坪	-15885
寅	-15886
爬	-15887
肚	-15888
謗	-15889
꜄	-15890
비	-15891
Ω	-15892
ᐝ	-15893
⌇	-15894
⍛	-15895
╋	-15896
个	-15897
准	-15898
弐	-15899
灸	-15900
萬	-15901
邊	-15902
ټ	-15903
俵	-15904
鯨	-15905
༽	-15906
▕	-15907
墜	-15908
憫	-15909
艇	-15910
구	-15911
	-15912
©	-15913
̱	-15914
ཽ	-15915
┠	-15916
ૅ	-15917
燻	-15918
讐	-15919
ꠥ	-15920
현	-15921
	-15922
Ŏ	-15923
ˬ	-15924
呢	-15925
咯	-15926
囧	-15927
悼	-15928
渓	-15929
猟	-15930
誹	-15931
	-15932
γ	-15933
༼	-15934
ᐠ	-15935
ᾥ	-15936
粕	-15937
¤	-15938
ȏ	-15939
✂	-15940
庇	-15941
朧	-15942
桶	-15943
渾	-15944
薩	-15945
賜	-15946
迂	-15947
郊	-15948
신	-15949
󾬏	-15950
и	-15951
唔	-15952
煌	-15953
穿	-15954
鉱	-15955
雫	-15956
鶯	-15957
코	-15958
哥	-15959
壺	-15960
磋	-15961
腑	-15962
閥	-15963
러	-15964
̳	-15965
҉	-15966
√	-15967
⚠	-15968
鮎	-15969
齋	-15970
˒	-15971
థ	-15972
ᐟ	-15973
乂	-15974
紡	-15975
繕	-15976
貪	-15977
黑	-15978
씨	-15979
타	-15980
ପ	-15981
⁝	-15982
俣	-15983
冤	-15984
囚	-15985
憐	-15986
憾	-15987
樫	-15988
鰹	-15989
동	-15990
원	-15991
Я	-15992
舘	-15993
遼	-15994
л	-15995
ᐪ	-15996
梓	-15997
漆	-15998
逗	-15999
錆	-16000
์	-16001
嗟	-16002
晨	-16003
爵	-16004
醐	-16005
鼠	-16006
면	-16007
ϋ	-16008
ב	-16009
ـ	-16010
༘	-16011
俄	-16012
畠	-16013
痣	-16014
豹	-16015
邉	-16016
醍	-16017
󾬌	-16018
໊	-16019
咄	-16020
斧	-16021
槌	-16022
緋	-16023
들	-16024
輿	-16025
遙	-16026
ơ	-16027
͛	-16028
؂	-16029
✕	-16030
们	-16031
哺	-16032
濵	-16033
窮	-16034
臆	-16035
訣	-16036
김	-16037
심	-16038
준	-16039
	-16040
४	-16041
ᴥ	-16042
⬇	-16043
她	-16044
學	-16045
昏	-16046
汲	-16047
痰	-16048
	-16049
ᅌ	-16050
僻	-16051
渦	-16052
黎	-16053
거	-16054
假	-16055
沒	-16056
瑚	-16057
謳	-16058
跟	-16059
雌	-16060
❝	-16061
狸	-16062
箕	-16063
訛	-16064
貿	-16065
鞍	-16066
ྀ	-16067
⋈	-16068
⚰	-16069
咥	-16070
槙	-16071
牌	-16072
鵜	-16073
방	-16074
ੇ	-16075
┬	-16076
叙	-16077
暈	-16078
杜	-16079
榎	-16080
苫	-16081
를	-16082
었	-16083
ز	-16084
ົ	-16085
坦	-16086
憊	-16087
汽	-16088
煉	-16089
蛙	-16090
詠	-16091
这	-16092
장	-16093
͐	-16094
༄	-16095
傲	-16096
呵	-16097
忖	-16098
燗	-16099
狛	-16100
영	-16101
중	-16102
ๆ	-16103
๏	-16104
༝	-16105
⇩	-16106
勲	-16107
椰	-16108
碁	-16109
없	-16110
☟	-16111
播	-16112
蟻	-16113
賓	-16114
迦	-16115
鮫	-16116
ᑋ	-16117
✈	-16118
婿	-16119
巫	-16120
葱	-16121
麹	-16122
루	-16123
바	-16124
ซ	-16125
ᕗ	-16126
嵌	-16127
爱	-16128
諒	-16129
박	-16130
̛	-16131
ི	-16132
ゑ	-16133
享	-16134
應	-16135
棺	-16136
每	-16137
莫	-16138
諾	-16139
鎧	-16140
隻	-16141
키	-16142
ʅ	-16143
∋	-16144
嗜	-16145
瘡	-16146
逞	-16147
鞭	-16148
麒	-16149
공	-16150
근	-16151
드	-16152
언	-16153
̬	-16154
॔	-16155
⊿	-16156
坐	-16157
遍	-16158
입	-16159
파	-16160
⚈	-16161
✴	-16162
乁	-16163
嗣	-16164
蝿	-16165
訊	-16166
년	-16167
성	-16168
슈	-16169
󾬆	-16170
๛	-16171
═	-16172
╻	-16173
◌	-16174
惰	-16175
禅	-16176
ʓ	-16177
η	-16178
ظ	-16179
⇔	-16180
⚪	-16181
哇	-16182
燭	-16183
穐	-16184
肛	-16185
蒔	-16186
鰤	-16187
麼	-16188
짜	-16189
◊	-16190
◢	-16191
昂	-16192
葦	-16193
齧	-16194
연	-16195
່	-16196
╫	-16197
尉	-16198
灘	-16199
祟	-16200
더	-16201
때	-16202
Ш	-16203
娩	-16204
徨	-16205
撰	-16206
淑	-16207
穀	-16208
࿁	-16209
⍨	-16210
惧	-16211
洸	-16212
濤	-16213
穢	-16214
음	-16215
짱	-16216
¿	-16217
ற	-16218
་	-16219
倦	-16220
巷	-16221
橙	-16222
紬	-16223
藪	-16224
陀	-16225
두	-16226
в	-16227
ཻ	-16228
ᐤ	-16229
∥	-16230
⍤	-16231
⚑	-16232
咩	-16233
牽	-16234
絹	-16235
많	-16236
승	-16237
전	-16238
غ	-16239
ٹ	-16240
ી	-16241
ఠ	-16242
✯	-16243
爛	-16244
粟	-16245
☁	-16246
☌	-16247
✦	-16248
咎	-16249
斑	-16250
朽	-16251
气	-16252
涌	-16253
还	-16254
鷺	-16255
님	-16256
	-16257
	-16258
˳	-16259
∫	-16260
凰	-16261
屮	-16262
措	-16263
摯	-16264
紘	-16265
것	-16266
단	-16267
분	-16268
	-16269
༥	-16270
ᕤ	-16271
叡	-16272
濫	-16273
頸	-16274
규	-16275
후	-16276
ˑ	-16277
ᕦ	-16278
娯	-16279
牟	-16280
肴	-16281
蔓	-16282
闊	-16283
雹	-16284
點	-16285
했	-16286
э	-16287
ึ	-16288
⇧	-16289
∨	-16290
✖	-16291
✾	-16292
剪	-16293
屍	-16294
开	-16295
昴	-16296
薯	-16297
踵	-16298
鞠	-16299
천	-16300
피	-16301
󾭗	-16302
ä	-16303
к	-16304
为	-16305
劉	-16306
懂	-16307
朦	-16308
爸	-16309
날	-16310
󾮕	-16311
॓	-16312
໒	-16313
⊥	-16314
墟	-16315
而	-16316
薙	-16317
譚	-16318
터	-16319
أ	-16320
૭	-16321
◣	-16322
✳	-16323
仗	-16324
已	-16325
怎	-16326
掟	-16327
硫	-16328
芥	-16329
蛸	-16330
⚐	-16331
嘛	-16332
絨	-16333
羹	-16334
脛	-16335
ꐦ	-16336
려	-16337
재	-16338
	-16339
ɑ	-16340
Ӧ	-16341
⋅	-16342
☍	-16343
⚾	-16344
ヱ	-16345
傻	-16346
梁	-16347
淹	-16348
鉾	-16349
®	-16350
ى	-16351
⇄	-16352
⌔	-16353
➭	-16354
填	-16355
或	-16356
秤	-16357
窃	-16358
舛	-16359
⃞	-16360
唆	-16361
毯	-16362
甜	-16363
甦	-16364
경	-16365
디	-16366
≪	-16367
░	-16368
♭	-16369
搞	-16370
泌	-16371
礫	-16372
脊	-16373
되	-16374
래	-16375
▀	-16376
☎	-16377
☼	-16378
⿻	-16379
嗯	-16380
